{"manning": 11956, "come": 2272, "banks": 5085, "displacement": 13508, "wash": 9378, "37th": 23027, "guitarists": 28523, "tun": 27112, "listening": 5962, "\u2019": 1521, "deserve": 10107, "139": 16621, "fundraising": 15524, "##bed": 8270, "interpreted": 10009, "airplay": 15341, "susquehanna": 26361, "what": 2054, "subtropical": 11935, "humiliated": 26608, "participation": 6577, "din": 11586, "##wee": 28394, "##listic": 27348, "absorbed": 9063, "\u03b6": 1160, "starters": 29400, "kind": 2785, "##\u043a": 23925, "born": 2141, "implement": 10408, "aided": 11553, "pearson": 12874, "##bled": 23242, "modernized": 27140, "desperate": 7143, "poppy": 19745, "decommissioned": 14394, "uganda": 10031, "##stic": 10074, "1783": 15331, "canadian": 3010, "\u09af": 1371, "swaying": 21826, "secretaries": 23660, "accusations": 13519, "cheese": 8808, "watered": 27129, "##tone": 5524, "##rk": 8024, "pentagon": 20864, "sufficient": 7182, "\u30d5": 1720, "lila": 19286, "[unused486]": 491, "poland": 3735, "pascal": 17878, "less": 2625, "completing": 7678, "economies": 18730, "##gar": 6843, "residential": 5647, "posthumously": 12770, "##vd": 16872, "##flower": 14156, "lennon": 14294, "mosquito": 22529, "ram": 8223, "playground": 14705, "barbarians": 28056, "anatomy": 13336, "\u4e2d": 1746, "orlando": 10108, "everybody": 7955, "traitor": 17328, "believer": 24591, "grade": 3694, "##wing": 9328, "m\u00b3": 14241, "deceased": 10181, "columnist": 13317, "amtrak": 20208, "marshes": 19257, "near": 2379, "wow": 10166, "bold": 7782, "bulls": 12065, "titles": 4486, "##uil": 19231, "gundam": 26152, "sep": 19802, "wheels": 7787, "hopeless": 20625, "that": 2008, "##sson": 7092, "appointments": 14651, "gears": 19456, "##\u0641": 29833, "malone": 16321, "stereo": 12991, "peerage": 18760, "topographic": 24254, "##\u2605": 30147, "[unused898]": 903, "[unused171]": 176, "precautions": 29361, "jacqueline": 17551, "fragmentation": 28424, "discourse": 15152, "the": 1996, "\u045b": 1217, "demonstrating": 14313, "liver": 11290, "1824": 11617, "protege": 28567, "bunch": 9129, "fatima": 27596, "females": 3801, "manufacturing": 5814, "scaling": 25169, "youthful": 22446, "##say": 24322, "##fication": 10803, "effective": 4621, "deposited": 14140, "##tase": 18260, "subscription": 15002, "pressing": 7827, "eighty": 12021, "lopez": 8685, "[unused302]": 307, "ages": 5535, "##table": 10880, "##lson": 14881, "launches": 18989, "##ometric": 28993, "glamour": 22439, "sons": 4124, "##unt": 16671, "obliged": 14723, "grades": 7022, "sweeps": 26981, "juice": 10869, "shepherd": 11133, "eki": 23174, "gerais": 29220, "##rwood": 20941, "biotechnology": 20353, "affiliation": 12912, "sur": 7505, "##gara": 24864, "mcqueen": 29265, "##ossa": 21842, "##\u3082": 30207, "##chu": 20760, "mayhem": 26865, "receives": 8267, "limit": 5787, "##jevic": 26782, "case": 2553, "examination": 7749, "sable": 23492, "reissued": 14805, "frankfurt": 9780, "burnham": 25295, "##tty": 15353, "thanked": 15583, "lester": 14131, "##quest": 15500, "\u0965": 1345, "battleships": 21327, "##inas": 15227, "##press": 20110, "##sit": 28032, "##peration": 29487, "verse": 7893, "autonomy": 12645, "marek": 29318, "hiroshima": 20168, "conspicuous": 19194, "sharma": 14654, "benton": 18685, "northamptonshire": 21367, "prisons": 15996, "wavelengths": 29263, "norte": 19931, "youngest": 6587, "conception": 13120, "aluminium": 14794, "reinforcements": 14214, "tree": 3392, "nods": 11232, "hers": 5106, "forcing": 6932, "surveying": 19654, "sixteen": 7032, "b1": 29491, "makeshift": 19368, "paxton": 27765, "gaze": 3657, "fibre": 20962, "rowe": 20538, "specializing": 14055, "earth": 3011, "stirling": 15597, "plots": 14811, "##\u9593": 30495, "mitsubishi": 19695, "close": 2485, "guidelines": 11594, "unpredictable": 21446, "bars": 6963, "punched": 11696, "pennant": 22690, "nato": 10079, "acre": 7456, "motown": 22654, "benji": 27231, "faith": 4752, "##n": 2078, "moose": 17716, "mutually": 20271, "philosophy": 4695, "militant": 16830, "##gative": 26792, "newest": 14751, "##bbly": 24200, "civil": 2942, "tensions": 13136, "ronnie": 11688, "giorgio": 17697, "##aro": 10464, "##mith": 19864, "deepened": 20183, "century": 2301, "krakow": 14576, "forgotten": 6404, "mca": 22432, "elects": 27161, "##itate": 17570, "##\u02bb": 29711, "gonzalez": 10121, "[unused624]": 629, "onto": 3031, "appearances": 3922, "female": 2931, "gm": 13938, "##lang": 25023, "1946": 3918, "##200": 28332, "consistent": 8335, "rashid": 22080, "primary": 3078, "sometimes": 2823, "sees": 5927, "##\u308c": 30214, "##%": 29616, "pair": 3940, "##\u0633": 29824, "ida": 16096, "ngos": 22165, "familiarity": 24666, "invalid": 19528, "guthrie": 19952, "rosary": 28291, "pile": 8632, "common": 2691, "coverage": 6325, "##skaya": 23070, "##lot": 10994, "connected": 4198, "uttar": 14940, "##rino": 17815, "piper": 11939, "folk": 5154, "wrote": 2626, "animal": 4111, "louise": 8227, "atrium": 26204, "jc": 29175, "impression": 8605, "retailers": 16629, "elevations": 18166, "foot": 3329, "estate": 3776, "layne": 22452, "apt": 26794, "landon": 20642, "bachelor": 5065, "spectra": 29237, "landed": 5565, "rocky": 6857, "[unused616]": 621, "malik": 14360, "cushions": 27205, "##zhi": 19436, "kruger": 27823, "1670": 26253, "dose": 13004, "actions": 4506, "##oko": 16366, "alistair": 23752, "higgins": 13466, "carriers": 11363, "rejoined": 14311, "stormy": 24166, "tangible": 24600, "spine": 8560, "students": 2493, "##tov": 26525, "mandate": 11405, "enveloped": 25407, "sergei": 14543, "##!": 29612, "mississippi": 5900, "volunteered": 14382, "roared": 14242, "packaging": 14793, "transmit": 19818, "saber": 25653, "##tose": 22282, "clarified": 20485, "handed": 4375, "related": 3141, "expanse": 22944, "jets": 9924, "endeavor": 23855, "choose": 5454, "##ei": 7416, "wills": 17234, "chair": 3242, "##ssee": 29522, "phil": 6316, "##lyn": 9644, "freeway": 10846, "tactical": 8608, "antibody": 27781, "narratives": 22143, "predict": 16014, "rowing": 12037, "\u0915": 1315, "selections": 16310, "rfc": 14645, "lambert": 12838, "doubled": 11515, "wu": 8814, "##hip": 5605, "carpets": 27997, "descending": 15127, "##ald": 19058, "370": 16444, "##\u0438\u0438": 15414, "marius": 20032, "pleasure": 5165, "suns": 19352, "slicing": 26514, "cavaliers": 25096, "granny": 19794, "afforded": 22891, "anders": 15387, "marko": 28003, "happens": 6433, "unclear": 10599, "magnolia": 24659, "ctv": 28720, "[unused587]": 592, "furiously": 20322, "##uating": 24133, "footballers": 27784, "measuring": 9854, "##hell": 18223, "360": 9475, "plant": 3269, "##ric": 7277, "##gate": 5867, "##dun": 27584, "amir": 18904, "ankles": 15392, "circle": 4418, "\u05d4": 1245, "greenwood": 16827, "systematic": 11778, "retrieval": 26384, "polymer": 17782, "defendants": 16362, "furnishings": 23127, "sparhawk": 13709, "328": 25256, "association": 2523, "kids": 4268, "1731": 28446, "backwards": 11043, "##ngen": 25997, "byu": 23471, "drive": 3298, "sevens": 19463, "interactions": 10266, "sakura": 23066, "received": 2363, "targets": 7889, "padre": 28612, "\u2206": 1594, "##valent": 24879, "cardiff": 10149, "##rky": 15952, "shower": 6457, "fairy": 8867, "mick": 10872, "##adi": 17190, "rats": 11432, "630": 23609, "lb": 6053, "##ej": 20518, "nemesis": 21363, "##\u0bbe": 29931, "swearing": 25082, "\u0993": 1352, "brink": 20911, "shimmering": 22349, "[unused677]": 682, "cozy": 26931, "tuned": 15757, "adventurous": 29118, "##oa": 10441, "##isson": 24077, "jeff": 5076, "luce": 19913, "precisely": 10785, "[unused425]": 430, "landscaping": 28404, "dress": 4377, "jews": 5181, "##kra": 22272, "thru": 27046, "##oting": 20656, "confrontation": 13111, "demo": 9703, "suburb": 7575, "homecoming": 20772, "elector": 20374, "clothing": 5929, "stalin": 13125, "[unused268]": 273, "preparations": 12929, "oppressive": 28558, "##sons": 23345, "repaired": 13671, "##mania": 27010, "pitcher": 8070, "trinity": 7124, "##tet": 22513, "vintage": 13528, "##zquez": 22938, "overlap": 17702, "mathematics": 5597, "sikhs": 26697, "elevated": 8319, "enjoyed": 5632, "av": 20704, "archived": 9749, "jameson": 22324, "whispers": 11054, "fog": 9666, "exceed": 13467, "[unused533]": 538, "buster": 18396, "##gical": 26715, "\u5343": 1784, "recovering": 13400, "lauderdale": 23520, "##hide": 26100, "retail": 7027, "richardson": 9482, "fin": 10346, "##\u5408": 30318, "dudley": 12648, "finishing": 5131, "ltd": 5183, "##sume": 23545, "ukraine": 5924, "##dman": 21804, "wince": 29585, "leak": 17271, "jackie": 9901, "fulfilling": 21570, "##\u0f44": 29963, "##eni": 18595, "doc": 9986, "land": 2455, "nottingham": 11331, "402": 28048, "cooks": 26929, "##iography": 26535, "keane": 27228, "##mity": 16383, "verbal": 12064, "151": 16528, "perez": 10730, "break": 3338, "commitments": 17786, "nominally": 24207, "consolation": 24831, "space": 2686, "##(": 29619, "ha": 5292, "delgado": 26532, "##card": 11522, "stuffing": 28652, "1992": 2826, "tony": 4116, "holland": 7935, "sentencing": 23280, "\u0f0b": 1424, "labyrinth": 24239, "dwight": 14304, "##em": 6633, "initial": 3988, "presenting": 10886, "condoms": 29094, "robotic": 20478, "##lists": 27103, "engaged": 5117, "honest": 7481, "mc": 11338, "doors": 4303, "archbishop": 6507, "##\u0dc0": 29943, "eclectic": 20551, "panda": 25462, "[unused145]": 150, "tudor": 15588, "[unused58]": 59, "##ining": 24002, "fix": 8081, "folks": 12455, "connor": 6720, "odds": 10238, "culinary": 20560, "refer": 6523, "notice": 5060, "formations": 13197, "goalkeeper": 9653, "proposals": 10340, "built": 2328, "##athan": 29246, "[unused735]": 740, "##ggles": 24989, "orr": 26914, "nina": 9401, "1622": 28133, "guineas": 22385, "leads": 5260, "classmates": 19846, "vegetation": 10072, "mcleod": 25363, "##nagar": 14346, "mutations": 14494, "contemporaries": 16682, "##uid": 21272, "##\u03b4": 29722, "dalton": 12413, "1618": 29029, "[unused693]": 698, "concussion": 23159, "\u0e27": 1419, "vendors": 17088, "##havan": 24652, ">": 1028, "rebellious": 22614, "candi": 27467, "stages": 5711, "isbn": 3175, "rhine": 10950, "acute": 11325, "preceded": 11677, "francaise": 18427, "+": 1009, "1758": 16832, "345": 23785, "obscene": 27744, "##rou": 22494, "opera": 3850, "prefect": 19402, "truss": 24224, "joan": 7437, "provision": 9347, "##oue": 27872, "particular": 3327, "cassidy": 13737, "domains": 13100, "luke": 5355, "stealing": 11065, "suited": 10897, "grooves": 25880, "ata": 29533, "##hane": 28006, "[unused313]": 318, "landing": 4899, "##lake": 14530, "[unused418]": 423, "rail": 4334, "clip": 12528, "hereditary": 14800, "##iated": 15070, "complaint": 12087, "luck": 6735, "primate": 25662, "##rok": 27923, "titled": 4159, "denmark": 5842, "rested": 8614, "sheath": 21867, "##eering": 20550, "scholarship": 6566, "lynn": 9399, "wrexham": 27119, "hearted": 18627, "annoying": 15703, "cannons": 17138, "express": 4671, "suspicion": 10928, "size": 2946, "runway": 9271, "politician": 3761, "palatine": 22202, "##ndt": 26379, "[unused447]": 452, "[unused311]": 316, "garlic": 20548, "##work": 6198, "bulge": 23708, "iraqi": 8956, "##nall": 22270, "[unused438]": 443, "franciscan": 19420, "##utus": 23998, "johns": 11545, "karin": 24537, "fined": 16981, "understand": 3305, "exile": 8340, "leonardo": 14720, "exchanges": 15800, "[unused762]": 767, "presley": 17229, "\u0621": 1269, "drury": 25663, "hounds": 27772, "incoming": 14932, "##phine": 20738, "jupiter": 13035, "##l": 2140, "joanna": 15730, "celeste": 21113, "trivial": 20610, "stop": 2644, "moving": 3048, "chairman": 3472, "##tlan": 28922, "##schaft": 26527, "powered": 6113, "barely": 4510, "\u00aa": 1076, "confessions": 21444, "oils": 20631, "fu": 11865, "deck": 5877, "stamps": 12133, "olga": 15585, "benefits": 6666, "edith": 13257, "hind": 17666, "screened": 12238, "allergic": 27395, "self": 2969, "spit": 13183, "refers": 5218, "##hered": 27190, "\u09a5": 1363, "conceptual": 17158, "james": 2508, "1663": 29016, "##\u6c38": 30422, "integrated": 6377, "demon": 5698, "live": 2444, "pipe": 8667, "seconds": 3823, "mohammed": 12619, "mph": 5601, "hanna": 10579, "ra": 10958, "\u694a": 1883, "peacekeeping": 28364, "internationally": 7587, "parts": 3033, "parole": 17393, "trier": 25487, "blossoms": 28766, "staffed": 21121, "##fire": 10273, "no": 2053, "granada": 16553, "darling": 9548, "##\u304d": 30178, "[unused45]": 46, "##lum": 12942, "cheung": 22632, "##ching": 8450, "[unused129]": 134, "mcbride": 18958, "##24": 18827, "cube": 14291, "file": 5371, "buys": 23311, "[unused856]": 861, "##\u03c0": 29731, "aside": 4998, "##heart": 22375, "pursuit": 8463, "products": 3688, "[unused164]": 169, "void": 11675, "1850": 7973, "##mins": 21266, "perfect": 3819, "var": 13075, "capsule": 18269, "plush": 27729, "periodical": 21802, "combining": 11566, "sport": 4368, "##lish": 13602, "bathrooms": 28942, "costing": 22173, "##\u90ce": 30484, "##\u09bf": 29915, "imagery": 13425, "##sten": 16173, "vulnerability": 18130, "##\u00a7": 29650, "pharaoh": 22089, "gaping": 21226, "discussed": 6936, "##achal": 24409, "[unused992]": 997, "excused": 28512, "dolly": 19958, "belize": 18867, "requested": 7303, "survives": 13655, "volcanoes": 23694, "namibia": 15408, "\u53e3": 1788, "manipulation": 16924, "chrome": 18546, "warlord": 16579, "##rie": 7373, "sodium": 13365, "environments": 10058, "##\u064a": 14498, "delegate": 11849, "ulysses": 22784, "\u0bc7": 1398, "mcdowell": 25005, "[unused817]": 822, "##pg": 26952, "inspiration": 7780, "421": 29403, "\u062d": 1276, "geometry": 10988, "reporters": 12060, "##oma": 9626, "introduces": 13999, "##hein": 26496, "talented": 10904, "jimenez": 22790, "turkey": 4977, "millionaire": 19965, "[unused117]": 122, "boats": 6242, "brew": 24702, "mont": 18318, "both": 2119, "lame": 20342, "[unused362]": 367, "electrons": 15057, "clutched": 13514, "versatile": 22979, "##acious": 20113, "aaron": 7158, "utilize": 16462, "offence": 15226, "their": 2037, "resort": 7001, "anton": 9865, "synthesized": 23572, "##lkirk": 23913, "ek": 23969, "tournaments": 8504, "##yala": 28617, "peck": 18082, "shrink": 22802, "amor": 16095, "mcmahon": 17741, "nielsen": 13188, "ono": 21058, "espn": 10978, "credit": 4923, "researches": 27338, "\u1106": 1459, "##rum": 6824, "##sters": 15608, "confines": 25722, "274": 25586, "kwan": 27741, "role": 2535, "wonders": 16278, "wilson": 4267, "deployment": 10813, "drummer": 7101, "liking": 16663, "spearheaded": 27721, "injustice": 21321, "demographics": 28321, "seek": 6148, "ambulance": 10771, "\u2026": 1529, "ruben": 19469, "struggling": 8084, "##logists": 18738, "secondly": 16378, "##crow": 24375, "laughs": 11680, "highlight": 12944, "##uin": 20023, "##feld": 8151, "transfer": 4651, "clothed": 24963, "iron": 3707, "upheld": 16813, "endorsement": 20380, "jordan": 5207, "fate": 6580, "##\u2229": 30131, "bosch": 25936, "\u0642": 1292, "##phones": 19093, "colored": 6910, "debuts": 26740, "panicked": 16035, "sphinx": 27311, "grandfather": 5615, "poisoned": 17672, "##chi": 5428, "societies": 8384, "##dev": 24844, "baldwin": 10970, "##\u1da0": 30047, "pleased": 7537, "introduced": 3107, "##lovic": 29356, "lad": 14804, "toby": 11291, "m2": 25525, "coordination": 12016, "gotten": 5407, "negotiating": 18875, "disputed": 11621, "apply": 6611, "luxury": 9542, "##brates": 25258, "chattanooga": 23351, "[unused140]": 145, "burmese": 14468, "##\u1d43": 30032, "euro": 9944, "habits": 14243, "journalist": 4988, "##oman": 20778, "research": 2470, "##\u667a": 30395, "##\u30e3": 30254, "broadband": 19595, "forty": 5659, "seahawks": 21390, "ix": 11814, "mentor": 10779, "rent": 9278, "fivb": 28423, "liturgy": 21176, "lucille": 28016, "partisans": 20762, "usaf": 18531, "sufi": 21845, "balancing": 20120, "railroad": 4296, "infrared": 14611, "champ": 24782, "zero": 5717, "indifferent": 24436, "enable": 9585, "colonization": 18962, "resource": 7692, "problems": 3471, "##gard": 13444, "navarre": 21260, "\u0905": 1311, "elf": 17163, "skilled": 10571, "##kle": 19099, "\u30ea": 1732, "##vira": 24093, "##yeh": 25673, "endemic": 7320, "297": 27502, "constructed": 3833, "##oni": 10698, "580": 23712, "vie": 20098, "trans": 9099, "humiliation": 21171, "##aring": 22397, "principle": 6958, "antique": 14361, "escorting": 23831, "bury": 11010, "shoved": 7468, "zipper": 22082, "##\u4e95": 30280, "##ifies": 14144, "##ecin": 28191, "solely": 9578, "mar": 9388, "leap": 11679, "byrne": 14928, "aesthetic": 12465, "\u967d": 1973, "feminism": 20050, "156": 16734, "portsmouth": 10913, "earning": 7414, "1807": 13206, "undeveloped": 29341, "celestial": 17617, "naming": 10324, "##\u09a3": 29897, "petals": 15829, "##nee": 24045, "vial": 28475, "zaragoza": 25744, "flaw": 28450, "trickle": 26027, "izzy": 16699, "artist": 3063, "miniature": 12973, "rug": 20452, "##bla": 28522, "relating": 8800, "vida": 19830, "##chs": 18069, "brilliant": 8235, "stoke": 13299, "##\u5973": 30341, "rogue": 12406, "bay": 3016, "##gam": 22864, "\u30d2": 1719, "passionate": 13459, "##rra": 11335, "arriving": 7194, "rehab": 24497, "##rnier": 28484, "clover": 25133, "becky": 14407, "decor": 25545, "##cat": 11266, "watery": 28259, "lingered": 17645, "overly": 15241, "modeled": 14440, "bearings": 21714, "classical": 4556, "javanese": 27344, "catalonia": 16711, "##ciful": 26336, "procurement": 21423, "bot": 28516, "unacceptable": 21873, "wiped": 8342, "kazakh": 25907, "96": 5986, "chao": 22455, "embroidery": 29507, "\u2665": 1625, "##psy": 18075, "favourite": 8837, "cooked": 12984, "\u0442": 1197, "evangelical": 11295, "joke": 8257, "fixed": 4964, "yielding": 21336, "clint": 16235, "householder": 7536, "##atable": 27892, "spend": 5247, "preferred": 6871, "deposits": 10042, "\u30e5": 1729, "slips": 17433, "1773": 19916, "bailey": 8925, "rewards": 19054, "lincoln": 5367, "economically": 15318, "roderick": 28326, "ratios": 21879, "wet": 4954, "funeral": 6715, "useless": 11809, "coward": 16592, "##sitor": 28307, "love": 2293, "upcoming": 9046, "races": 3837, "dimensional": 8789, "09": 5641, "padma": 23731, "##bang": 25153, "yamamoto": 28318, "##zie": 14272, "##ote": 12184, "##xie": 16898, "carroll": 10767, "diversity": 8906, "durban": 25040, "bucket": 13610, "gideon": 12137, "selection": 4989, "##bis": 18477, "##ition": 22753, "##ocene": 25793, "1827": 12309, "##watch": 18866, "feather": 15550, "aw": 22091, "repertoire": 13646, "naval": 3987, "worship": 7425, "neighbours": 14754, "norma": 20692, "radiated": 23000, "dauphin": 29102, "reservations": 17829, "ch": 10381, "[unused958]": 963, "sorority": 27600, "1974": 3326, "hydraulic": 14761, "plunged": 16687, "78": 6275, "\u2229": 1604, "favour": 7927, "rn": 29300, "rivers": 5485, "[unused502]": 507, "adriatic": 23400, "argentine": 8511, "productions": 5453, "advisory": 7319, "##anna": 25789, "servant": 7947, "avoided": 9511, "is": 2003, "geologist": 21334, "eastbound": 24773, "80": 3770, "nanny": 19174, "weaving": 15360, "\u207a": 1544, "eastenders": 28936, "flees": 24776, "##isation": 6648, "[unused897]": 902, "suppression": 16341, "amanda": 8282, "bible": 6331, "vile": 25047, "stiff": 10551, "##americana": 27026, "cottage": 9151, "investing": 19920, "##tism": 17456, "sensation": 8742, "tasmanian": 21394, "starred": 5652, "##cock": 13959, "shattering": 21797, "hurrying": 27951, "tugs": 29306, "l": 1048, "yearbook": 24803, "char": 25869, "fuss": 28554, "silesian": 20453, "##dder": 20791, "desired": 9059, "##rained": 27361, "2nd": 3416, "##roup": 22107, "talked": 5720, "rage": 7385, "lan": 17595, "hirsch": 28127, "covers": 4472, "##ion": 3258, "downing": 22501, "anal": 20302, "fall": 2991, "##ova": 7103, "cora": 17195, "##ouring": 27897, "madame": 10602, "corporate": 5971, "porte": 25927, "tube": 7270, "warnings": 16234, "crest": 11146, "##\u8857": 30472, "silver": 3165, "savannah": 10891, "frequencies": 13139, "implemented": 7528, "##chel": 15721, "lately": 9906, "watkins": 17055, "talent": 5848, "##acion": 21736, "##\u2070": 30071, "##dam": 17130, "northwards": 27592, "morphology": 19476, "terminal": 5536, "scott": 3660, "##cano": 23803, "##hwa": 18663, "served": 2366, "howie": 28211, "##en": 2368, "##roud": 21332, "medici": 22605, "##osed": 24768, "leftist": 24247, "closeness": 28398, "inhibitor": 24054, "painful": 9145, "towing": 28379, "##nai": 26416, "##\u05d2": 29790, "rob": 6487, "intensified": 15767, "1624": 28531, "unfit": 29439, "noted": 3264, "approximation": 20167, "marvelous": 28851, "1782": 16890, "disabilities": 13597, "missionary": 8696, "bleeding": 9524, "##\u0bc1": 29933, "dragged": 7944, "technologies": 6786, "complementary": 21053, "\u1174": 1482, "infirmary": 23453, "thai": 7273, "eliminate": 11027, "advocacy": 12288, "##ured": 12165, "##\u2206": 30122, "[unused915]": 920, "\u305d": 1660, "inherently": 26096, "jazz": 4166, "differed": 19541, "##ister": 12911, "bs": 18667, "reminds": 15537, "muscle": 6740, "solved": 13332, "uhf": 20131, "deeds": 15616, "venues": 9356, "workplace": 16165, "counselor": 17220, "widening": 17973, "scrutiny": 17423, "510": 23475, "terminated": 12527, "greenish": 23753, "[unused615]": 620, "burrows": 22009, "gmina": 7061, "islanders": 16422, "newborn": 20662, "[unused273]": 278, "hunting": 5933, "second": 2117, "##band": 12733, "astor": 25159, "navarro": 23524, "##gc": 18195, "embankment": 22756, "massachusetts": 4404, "pouring": 13053, "##hopper": 27330, "heels": 8265, "[unused371]": 376, "##if": 10128, "\u0f53": 1429, "[unused452]": 457, "plaid": 26488, "##bruck": 28985, "garry": 21507, "##rga": 28921, "\u0289": 1131, "ordinary": 6623, "dayton": 14700, "dame": 8214, "##9": 2683, "##uw": 25974, "backyard": 16125, "histories": 15215, "judgement": 16646, "\u028c": 1134, "norris": 15466, "[unused651]": 656, "##ctic": 13306, "##som": 25426, "1772": 17483, "sovereignty": 12601, "apple": 6207, "uses": 3594, "novel": 3117, "doping": 23799, "peeked": 18652, "##iel": 9257, "##rish": 18774, "##gman": 25494, "frontier": 8880, "garde": 14535, "publicity": 11845, "##enting": 26951, "buckled": 26368, "diver": 17856, "##shi": 6182, "extending": 8402, "eighties": 27690, "uniformed": 25189, "dickens": 19675, "lola": 15137, "skeptical": 18386, "##\u5f8c": 30372, "##jee": 16963, "neue": 27713, "matthias": 17885, "##mia": 10092, "##ilis": 24411, "nomenclature": 23718, "eduardo": 14846, "dali": 29095, "circulation": 9141, "##dant": 28210, "oro": 20298, "finite": 10713, "olive": 9724, "cole": 5624, "arising": 17707, "batman": 8942, "[unused680]": 685, "##ban": 8193, "ammunition": 9290, "racecourse": 15948, "##stadt": 21543, "##eza": 28640, "bodies": 4230, "constructive": 26157, "clement": 12223, "ty": 5939, "304": 23859, "critique": 16218, "##ieu": 17301, "shake": 6073, "disappear": 10436, "mob": 11240, "diocese": 5801, "##yad": 25152, "##ours": 22957, "ox": 23060, "influenza": 24442, "116": 12904, "19th": 3708, "indochina": 27053, "encompassing": 19129, "suppose": 6814, "proximity": 10039, "hays": 29051, "thousands": 5190, "##:": 29627, "dissatisfaction": 28237, "discovering": 13648, "[unused287]": 292, "favourites": 28271, "##christ": 26654, "##uter": 19901, "buildings": 3121, "wilkins": 22745, "eastern": 2789, "vargas": 20556, "adjunct": 20621, "apr": 19804, "etudes": 25041, "creek": 3636, "##\u0e32": 29958, "operate": 5452, "##32": 16703, "ridges": 16386, "##bush": 22427, "norman": 5879, "grayson": 17556, "poisoning": 16149, "cute": 10140, "collapsing": 22724, "baseball": 3598, "exploded": 9913, "prodigy": 28334, "ka": 10556, "gentleman": 10170, "corridor": 7120, "##rice": 17599, "ventral": 23420, "collaborations": 17437, "surfaced": 15791, "swings": 18755, "##iac": 20469, "translators": 28396, "services": 2578, "insistent": 29204, "wrought": 18481, "coupled": 11211, "billie": 18210, "symbols": 9255, "tables": 7251, "annoyance": 17466, "sexuality": 13798, "parlor": 18746, "greyish": 26916, "volunteers": 7314, "##gly": 25643, "##strel": 26877, "feb": 13114, "rampant": 25883, "##walker": 26965, "philosophical": 9569, "##itor": 15660, "dresses": 14464, "gunfire": 16978, "creature": 6492, "##\u0e2d": 29957, "\u00a3": 1069, "axial": 26819, "fantasies": 21233, "daniela": 28541, "leveled": 22915, "rudy": 18254, "rei": 24964, "kick": 5926, "advocating": 20324, "auction": 10470, "chemistry": 6370, "complex": 3375, "caretaker": 17600, "kgb": 25467, "[unused780]": 785, "strangers": 12358, "##\u6c5f": 30423, "transparency": 16987, "claudia": 13479, "flexed": 24244, "permission": 6656, "decay": 13121, "reynolds": 9579, "jaguars": 24017, "straightened": 11168, "kimberley": 25004, "relic": 24933, "locate": 12453, "a": 1037, "largest": 2922, "backdrop": 18876, "##titled": 21309, "beverages": 21705, "hiking": 13039, "gymnastics": 14002, "water": 2300, "99": 5585, "sociology": 11507, "cue": 16091, "\u3088": 1684, "ensemble": 7241, "minded": 13128, "##kla": 26086, "agency": 4034, "[unused192]": 197, "sheldon": 19369, "##rogated": 26565, "##rita": 17728, "sleeves": 15114, "##rgy": 22637, "intricate": 17796, "cathedral": 5040, "laboratories": 12030, "suites": 19796, "legislator": 22964, "poll": 8554, "vertex": 19449, "legged": 15817, "christchurch": 15880, "businessmen": 17353, "historical": 3439, "##ram": 6444, "edwards": 7380, "contentious": 29308, "mistakenly": 20706, "southport": 27494, "saving": 7494, "hornets": 24855, "##chio": 23584, "introduce": 8970, "reflective": 21346, "focal": 15918, "##\u4e16": 30271, "residence": 5039, "##rvis": 29074, "cyclone": 11609, "taxpayers": 26457, "protocol": 8778, "[unused909]": 914, "concert": 4164, "poe": 18922, "lobes": 24423, "abilities": 7590, "tablets": 17596, "gb": 16351, "constituency": 5540, "budapest": 10926, "reflections": 16055, "##ses": 8583, "involves": 7336, "##\u0627\u0646": 18511, "##hee": 21030, "controlling": 9756, "mitch": 11857, "steals": 15539, "##\u02e2": 29717, "constituencies": 13315, "smashwords": 25151, "registrar": 24580, "mutiny": 19306, "indicators": 20390, "dung": 29328, "exaggerated": 16903, "sawyer": 13975, "affordable": 15184, "ritchie": 20404, "sonar": 24609, "lovely": 8403, "##ulsion": 23316, "bertha": 25079, "decrees": 28966, "##dl": 19422, "medial": 23828, "wouldn": 2876, "pounder": 20091, "[unused234]": 239, "face": 2227, "##sus": 13203, "##\u0ba8": 29922, "##own": 12384, "rampage": 29216, "breaking": 4911, "[unused27]": 28, "drivers": 6853, "lords": 8140, "kimball": 26659, "grande": 9026, "monuments": 10490, "vortex": 23463, "condition": 4650, "cops": 10558, "picnic": 12695, "vinegar": 29387, "##uder": 29190, "nm": 13221, "reorganization": 17118, "rae": 14786, "[unused689]": 694, "1697": 28690, "kaladin": 22588, "constable": 12294, "mystical": 17529, "heading": 5825, "franklin": 5951, "[unused245]": 250, "goodnight": 22708, "libretto": 17621, "4a": 26424, "sorbonne": 28452, "wnba": 25554, "drip": 27304, "revive": 17995, "##raj": 14220, "woodward": 19133, "promoters": 26512, "scholars": 5784, "luxembourg": 10765, "angry": 4854, "##lion": 18964, "\u00a9": 1075, "191": 19871, "##berg": 4059, "##\u6c0f": 30417, "alternatives": 15955, "cart": 11122, "parental": 18643, "adds": 9909, "##lid": 21273, "loft": 19459, "baltimore": 6222, "purpose": 3800, "shoes": 6007, "##\u90e1": 30485, "##lor": 10626, "syllables": 20732, "##like": 10359, "polymers": 27216, "##ogen": 23924, "lieu": 22470, "methane": 24481, "middlesex": 13654, "##eur": 11236, "agnes": 11166, "luton": 17807, "\u30db": 1722, "unaffected": 24720, "ortiz": 19439, "309": 25048, "uruguay": 11724, "threatens": 17016, "##worthy": 13966, "##che": 5403, "[unused66]": 67, "sources": 4216, "otto": 8064, "simeon": 24371, "eminent": 14953, "billionaire": 22301, "ck": 23616, "fed": 7349, "preserved": 6560, "craters": 27561, "moors": 24812, "drone": 18465, "tentatively": 19325, "##gny": 19393, "muted": 22124, "clarence": 11805, "##icing": 23553, "projection": 13996, "##zyn": 23749, "##yk": 15922, "thoughts": 4301, "##miya": 29312, "harcourt": 22714, "##bane": 27543, "graduating": 6800, "confirm": 12210, "ship": 2911, "emigrated": 11367, "##bby": 14075, "playoff": 7808, "security": 3036, "despair": 13905, "greaves": 27808, "[unused232]": 237, "annexation": 18985, "commanders": 11437, "pac": 14397, "breaststroke": 28164, "moat": 25266, "bandit": 25334, "2003": 2494, "tyrol": 27193, "nebraska": 8506, "##cross": 16458, "trust": 3404, "compassion": 15398, "arabic": 5640, "tingling": 23690, "proposes": 17146, "[unused382]": 387, "rhodes": 10588, "pat": 6986, "graphic": 8425, "##8th": 28264, "##lika": 25421, "vivian": 13801, "caldwell": 16589, "generalized": 18960, "antiquity": 16433, "##ield": 12891, "salmon": 11840, "dorothy": 9984, "engine": 3194, "##\u21d2": 30119, "##fus": 25608, "##zzy": 28753, "redemption": 18434, "1000": 6694, "distract": 15886, "primitive": 10968, "##\u6625": 30393, "yoon": 24863, "gregg": 18281, "independent": 2981, "gleam": 24693, "spokesperson": 15974, "pump": 10216, "dillon": 14602, "##urs": 9236, "admits": 14456, "halls": 9873, "genre": 6907, "##ado": 9365, "browne": 15005, "dynasties": 23014, "reel": 15934, "clear": 3154, "vt": 28879, "accounts": 6115, "devoid": 22808, "worrying": 15366, "hammering": 27883, "pained": 22295, "flexibility": 16991, "constructing": 15696, "toes": 10393, "choreographed": 23317, "gazed": 11114, "por": 18499, "ported": 27650, "hosting": 9936, "caspian": 25893, "[unused351]": 356, "bomb": 5968, "lina": 27022, "filmmakers": 16587, "jalan": 28410, "liga": 8018, "monstrous": 21668, "##cr": 26775, "abrupt": 18772, "videos": 6876, "sketches": 12741, "[unused767]": 772, "sipping": 24747, "##pel": 11880, "lds": 17627, "##ously": 13453, "mannheim": 25116, "stump": 22475, "cowan": 25752, "##erly": 12561, "321": 24030, "##\u2193": 30114, "hackney": 28425, "[unused179]": 184, "instructors": 19922, "delaware": 8452, "egypt": 5279, "novels": 6002, "332": 29327, "##hea": 20192, "safeguard": 28805, "saints": 6586, "clever": 12266, "mergers": 28585, "drank": 10749, "##ddin": 18277, "##lewood": 26580, "##ur": 3126, "##tf": 24475, "entirely": 4498, "schoolhouse": 26301, "kat": 10645, "impromptu": 29213, "ma": 5003, "nope": 16780, "fascinated": 15677, "males": 3767, "\u0290": 1136, "mortals": 23844, "##ffs": 21807, "gandhi": 12338, "\u738b": 1909, "wasp": 19411, "conjecture": 22647, "thirst": 21810, "[unused370]": 375, "backing": 5150, "instructor": 9450, "sweater": 14329, "194": 19955, "canons": 21975, "demands": 7670, "construction": 2810, "##att": 19321, "##ono": 17175, "surplus": 15726, "jon": 6285, "devi": 14386, "budgets": 26178, "benson": 11999, "##tracted": 24301, "giro": 19226, "breed": 8843, "camera": 4950, "[unused105]": 110, "##bir": 17706, "forceful": 28552, "tragic": 13800, "lady": 3203, "monthly": 7058, "uneasy": 15491, "195": 17317, "assistant": 3353, "invaded": 10836, "madhya": 20841, "westchester": 25489, "ville": 20184, "##\u207f": 30080, "3": 1017, "protects": 18227, "rhythms": 17900, "##ctive": 15277, "chavez": 16860, "cautiously": 15151, "arthritis": 27641, "##gaon": 27073, "##page": 13704, "japanese": 2887, "feat": 8658, "han": 7658, "guarded": 13802, "welterweight": 20882, "longevity": 26906, "operators": 9224, "rehearsals": 24760, "allegiance": 14588, "financially": 13732, "uk": 2866, "tendencies": 20074, "##ino": 5740, "##rating": 15172, "dazed": 19720, "##ibly": 17296, "1632": 28216, "zimmerman": 27946, "##ix": 7646, "depleted": 22595, "##pi": 8197, "##rr": 12171, "creators": 17277, "aft": 16638, "furlongs": 26602, "katrina": 16864, "570": 24902, "##\u0444": 29749, "behaved": 26979, "\u65e5": 1864, "##\u7af9": 30459, "reddy": 18998, "##yat": 26139, "applied": 4162, "##neuve": 28104, "##\uff01": 30512, "1683": 27414, "banded": 25264, "##pic": 24330, "fleeting": 25085, "weighing": 15243, "1100": 22096, "limits": 6537, "brownish": 19437, "writ": 25697, "alpha": 6541, "vols": 18709, "basilica": 13546, "mold": 18282, "reinforce": 19444, "viscount": 12182, "into": 2046, "afghan": 12632, "voices": 5755, "\u304f": 1653, "issn": 23486, "ceramic": 14692, "framed": 10366, "compelled": 15055, "finding": 4531, "##ast": 14083, "[unused613]": 618, "creditors": 23112, "batavia": 28917, "volta": 26089, "safe": 3647, "georg": 12062, "beverage": 19645, "passion": 6896, "empty": 4064, "madam": 21658, "unidentified": 20293, "##flict": 29301, "proper": 5372, "\u099a": 1356, "munoz": 23685, "\u0f56": 1431, "churches": 5231, "modules": 14184, "russians": 12513, "concludes": 14730, "archer": 11024, "ci": 25022, "##nsed": 27730, "deng": 26957, "patriots": 11579, "##hort": 27794, "grammar": 8035, "##bank": 9299, "inducted": 8120, "##yya": 19903, "[unused582]": 587, "detected": 11156, "##igh": 18377, "lifetime": 6480, "copeland": 27303, "doubtful": 21888, "duncan": 7343, "centuries": 4693, "anzac": 29224, "estimation": 24155, "pretend": 9811, "tampa": 9925, "specimens": 9908, "hawkins": 13835, "under": 2104, "[unused781]": 786, "hospital": 2902, "amore": 26297, "anguish": 21782, "##kell": 18690, "grimes": 24865, "chapel": 4970, "##ories": 18909, "archeological": 23005, "clark": 5215, "neo": 9253, "assemble": 21365, "##erland": 22492, "##tier": 17579, "involvement": 6624, "fein": 27132, "##ario": 16843, "coastline": 15458, "##\u98df": 30504, "277": 25578, "quintet": 18109, "andes": 18096, "nuclear": 4517, "crouched": 14275, "##sp": 13102, "triumph": 10911, "##culus": 28703, "##jean": 27687, "swam": 16849, "mandy": 18193, "unfair": 15571, "prelate": 26595, "hogan": 14851, "eds": 11985, "sainte": 16947, "jacobite": 28725, "pontiac": 24538, "contamination": 18701, "bedside": 19475, "##yx": 17275, "##yar": 13380, "tanned": 25973, "enhance": 11598, "##wall": 9628, "[unused696]": 701, "marlborough": 22830, "##\u30b1": 30229, "singer": 3220, "##bble": 11362, "##\u0565": 29770, "##ged": 5999, "cloth": 8416, "bond": 5416, "circles": 7925, "icy": 13580, "strolled": 20354, "##ush": 20668, "mayors": 21941, "intellectual": 7789, "##ult": 11314, "praises": 27128, "greta": 26111, "active": 3161, "secure": 5851, "blanca": 27538, "##res": 6072, "irish": 3493, "bases": 7888, "platform": 4132, "##dles": 27822, "processes": 6194, "##just": 29427, "cohen": 9946, "lucas": 6326, "abandonment": 22290, "conclude": 16519, "unite": 15908, "351": 28474, "purchasing": 13131, "tchaikovsky": 25900, "[unused837]": 842, "siemens": 22108, "susanna": 26681, "[unused330]": 335, "##nated": 23854, "excluded": 12421, "##dge": 11818, "\u30cf": 1718, "moss": 10636, "##itan": 25451, "sera": 26358, "manifestation": 24491, "##hita": 23935, "warden": 13745, "##\u9999": 30505, "finishes": 12321, "##hesion": 21471, "reprise": 16851, "atmosphere": 7224, "moody": 14434, "logs": 15664, "1977": 3355, "crates": 27619, "6th": 5351, "official": 2880, "##rdan": 26992, "##tees": 28313, "budge": 24981, "harmonies": 28594, "thug": 26599, "##smo": 25855, "bitterness": 22364, "detailed": 6851, "traffic": 4026, "subtly": 28797, "cobra": 16604, "published": 2405, "drugged": 25483, "mig": 19117, "orchard": 15623, "hair": 2606, "\u961d": 1970, "##thus": 19877, "[unused131]": 136, "southampton": 11833, "recognised": 7843, "chelsea": 9295, "applicant": 23761, "##\u0131": 11722, "karachi": 15381, "\u0441": 1196, "hand": 2192, "rushing": 8375, "dee": 9266, "blindly": 25734, "##terol": 27833, "professor": 2934, "principals": 27928, "trooper": 28224, "convoy": 9549, "children": 2336, "[unused596]": 601, "ball": 3608, "##\u5b66": 30343, "rooney": 24246, "##endez": 28787, "gunpowder": 22220, "tunnels": 10633, "wandering": 13071, "[unused753]": 758, "guitars": 7334, "##borough": 10235, "##oro": 14604, "grandmaster": 27101, "denoted": 19537, "unreasonable": 29205, "heaviest": 26858, "athlete": 8258, "asia": 4021, "draw": 4009, "uncle": 4470, "cher": 24188, "canine": 28735, "myriad": 25028, "toro": 23790, "qui": 21864, "arguably": 15835, "##ytic": 21252, "##\u0272": 29689, "protested": 11456, "salman": 28542, "54th": 29570, "gnome": 25781, "##wad": 26016, "remington": 25282, "critical": 4187, "tucker": 9802, "scratch": 11969, "lifespan": 26462, "groups": 2967, "\u0d9a": 1403, "profits": 11372, "engagement": 8147, "tension": 6980, "fang": 15197, "handel": 21465, "iphone": 18059, "meteor": 23879, "society": 2554, "1894": 6539, "allison": 10786, "cushion": 22936, "sign": 3696, "##building": 25820, "##polis": 17699, "genesis": 11046, "[unused359]": 364, "1086": 28196, "illustrations": 11249, "question": 3160, "ljubljana": 21588, "[unused508]": 513, "dentistry": 26556, "##ows": 15568, "poole": 19107, "##kur": 18569, "underwear": 14236, "##cede": 22119, "damage": 4053, "smoothed": 17966, "victoria": 3848, "ras": 20710, "##vian": 18073, "photo": 6302, "1933": 4537, "arlington": 13929, "grabs": 13273, "eucalyptus": 27111, "masonic": 21152, "oxidation": 19577, "##des": 6155, "##gawa": 21188, "riley": 7546, "##wi": 9148, "engaging": 11973, "competes": 14190, "##aj": 13006, "condemn": 28887, "##hoe": 14490, "robot": 8957, "seating": 10747, "##\u9547": 30492, "carry": 4287, "edit": 10086, "intersecting": 27294, "lasts": 16180, "alps": 13698, "tears": 4000, "uh": 7910, "cadillac": 20425, "##tones": 11115, "jarvis": 21072, "perennial": 14638, "meditation": 13804, "[unused184]": 189, "sectional": 27197, "##ca": 3540, "\u0261": 1116, "thierry": 26413, "reelection": 17648, "nakamura": 23981, "kylie": 9008, "presided": 15506, "1658": 28944, "incorporating": 13543, "##landa": 24448, "##kki": 24103, "insisting": 22604, "engineering": 3330, "##ive": 3512, "variables": 10857, "courage": 8424, "champagne": 12327, "[unused71]": 72, "hotspur": 25985, "##pathy": 20166, "##core": 17345, "inform": 12367, "steam": 5492, "bengali": 11267, "cuban": 9642, "burns": 7641, "coyote": 20457, "auto": 8285, "lions": 7212, "communes": 16569, "##growth": 26982, "gains": 12154, "termination": 18287, "inversion": 28527, "##ride": 15637, "louie": 17438, "laude": 21602, "tilted": 9939, "##nson": 15551, "##hong": 19991, "##ps": 4523, "brewster": 23009, "quarrel": 26260, "harriet": 14207, "\u5f73": 1845, "thirds": 12263, "uranium": 14247, "profiles": 17879, "##bal": 10264, "nhs": 17237, "vr": 27830, "anne": 4776, "##lone": 27165, "wright": 6119, "##ced": 11788, "preserve": 7969, "interfaces": 19706, "topology": 19587, "dinah": 26562, "##mba": 11201, "eastman": 24252, "\u09b6": 1374, "fridge": 16716, "##gist": 24063, "1840": 8905, "vibrated": 27801, "foreigner": 29524, "christoph": 21428, "filippo": 28669, "\u5802": 1805, "spikes": 19547, "routing": 16972, "prohibiting": 26325, "exiles": 27127, "ciudad": 20759, "##mx": 22984, "##aking": 15495, "kennedy": 5817, "belts": 18000, "behalf": 6852, "refuse": 10214, "okinawa": 15052, "stripes": 13560, "##tro": 13181, "\u10d2": 1440, "wedge": 17632, "wainwright": 25305, "abel": 16768, "olympia": 17096, "wagner": 10304, "event": 2724, "##mined": 25089, "holiness": 27692, "distortion": 20870, "lyrical": 16376, "downwards": 28457, "donaldson": 23164, "##lmer": 23398, "needles": 17044, "easton": 21636, "surgeons": 16804, "sam": 3520, "tobago": 17247, "[unused233]": 238, "##mann": 5804, "##ome": 8462, "liechtenstein": 26500, "quest": 8795, "penguin": 13987, "##gia": 10440, "reflect": 8339, "thrusting": 21468, "premier": 4239, "##tian": 10772, "rush": 5481, "minimize": 18478, "actually": 2941, "benoit": 21721, "##\u0d9a": 29939, "##cian": 14483, "vaulted": 24616, "messaging": 24732, "[unused630]": 635, "irrational": 23179, "buyers": 17394, "##vani": 27760, "alfa": 22989, "distribute": 16062, "nobles": 13969, "altogether": 10462, "viola": 10482, "happened": 3047, "scenes": 5019, "##nn": 10695, "warlock": 28861, "composers": 9929, "titan": 16537, "almond": 26011, "absolute": 7619, "\u533a": 1782, "babies": 10834, "indonesia": 6239, "##fight": 20450, "impending": 17945, "posted": 6866, "##eft": 29218, "montenegrin": 24099, "ringing": 13060, "knocks": 21145, "hq": 16260, "dutton": 28784, "resources": 4219, "[unused257]": 262, "\u0291": 1137, "##nan": 7229, "altitude": 7998, "wits": 25433, "fangs": 11738, "registering": 25719, "addition": 2804, "shortages": 22623, "humble": 15716, "##fin": 16294, "expectation": 17626, "gail": 18576, "[unused406]": 411, "athletic": 5188, "strasbourg": 18104, "leave": 2681, "outstanding": 5151, "mammal": 25476, "continent": 9983, "nancy": 7912, "2011": 2249, "dubai": 11558, "chimneys": 28885, "\u83ef": 1942, "citing": 8951, "jocelyn": 23786, "byrd": 17845, "flourishing": 29571, "##ahl": 28083, "##\u1d50": 30038, "install": 16500, "look": 2298, "reins": 19222, "\u3048": 1649, "cinemas": 19039, "happy": 3407, "investments": 10518, "wessex": 27886, "jase": 18626, "##tham": 22536, "rubbing": 10137, "cfl": 18830, "##\u056c": 29773, "greensboro": 27905, "##let": 7485, "shelter": 7713, "pierce": 9267, "tottenham": 18127, "dwarves": 29281, "##otted": 26174, "##\u624b": 30384, "##rae": 16652, "carthage": 21959, "[unused667]": 672, "partisan": 14254, "##\u00b3": 18107, "amino": 13096, "estranged": 24211, "##ale": 9453, "somali": 16831, "horsepower": 15149, "##ui": 10179, "examinations": 14912, "vital": 8995, "wheelchair": 13204, "narrowly": 11866, "\u0e19": 1413, "punished": 14248, "##p": 2361, "rounded": 8352, "##enna": 24397, "iced": 28248, "yeomanry": 26883, "ruse": 26307, "##xx": 20348, "##ool": 13669, "organizational": 13296, "##vered": 25896, "##brand": 23544, "actor": 3364, "##bard": 21458, "encourages": 16171, "dirty": 6530, "##gration": 29397, "##yna": 18279, "lawson": 14577, "resulting": 4525, "188": 19121, "autobiographical": 18534, "1821": 11723, "rosemary": 18040, "##van": 6212, "cursing": 19752, "xavier": 10062, "bananas": 26191, "2012": 2262, "\u3009": 1638, "horned": 26808, "looked": 2246, "##founded": 21001, "##lea": 19738, "censorship": 15657, "reddish": 14182, "poorly": 9996, "##\u27e9": 30156, "abyss": 22159, "depth": 5995, "thought": 2245, "basel": 14040, "2015": 2325, "purcell": 26429, "grenade": 17038, "manor": 6952, "sponsors": 13162, "306": 24622, "permits": 14245, "neuroscience": 23700, "doctor": 3460, "runs": 3216, "hereford": 21136, "eh": 15501, "intimidation": 28973, "dodge": 11898, "player": 2447, "##xing": 19612, "##hta": 22893, "winston": 10180, "deity": 12764, "##\u2087": 30083, "changes": 3431, "##ats": 11149, "spencer": 7084, "condemnation": 26248, "commits": 27791, "kong": 4290, "eisenhower": 16551, "turner": 6769, "elected": 2700, "norton": 10770, "##ingly": 15787, "poetry": 4623, "elastic": 21274, "complete": 3143, "glenn": 9465, "##ash": 11823, "reclaim": 24104, "siegel": 27996, "##iot": 25185, "posters": 14921, "sulawesi": 29078, "choirs": 24743, "teased": 13074, "koppen": 20139, "bertrand": 20586, "##ap": 9331, "objections": 17304, "fairchild": 24258, "iona": 22347, "pseudonym": 13881, "cup": 2452, "incorporate": 13265, "[unused822]": 827, "##oton": 25862, "suggesting": 9104, "mori": 22993, "##aday": 28039, "urdu": 12454, "##uls": 28426, "##sell": 23836, "##ful": 3993, "cramer": 29433, "chores": 27091, "sheikh": 12840, "beaver": 13570, "villains": 16219, "\u00a2": 1068, "shield": 6099, "##land": 3122, "##stra\u00dfe": 24967, "instrumentalist": 29253, "efforts": 4073, "cents": 16653, "cobb": 17176, "editors": 10195, "relieve": 15804, "rapidly": 5901, "164": 17943, "##llah": 18599, "sports": 2998, "missiles": 10815, "parent": 6687, "nano": 28991, "au": 8740, "forster": 21316, "solve": 9611, "[unused757]": 762, "antagonist": 17379, "##lizer": 28863, "tucson": 17478, "goo": 27571, "fictitious": 23577, "socialists": 21633, "para": 11498, "refit": 27070, "bradley": 8981, "illuminating": 27816, "##cating": 18252, "[unused113]": 118, "casa": 14124, "##\u0964": 29880, "conversations": 11450, "hellenic": 23122, "lifelong": 13506, "gene": 4962, "vibrant": 17026, "equipment": 3941, "console": 10122, "canteen": 26449, "##aran": 20486, "sac": 17266, "[unused841]": 846, "##ets": 8454, "bastion": 26829, "##ppe": 21512, "queue": 24240, "\u0435": 1185, "believe": 2903, "##biology": 21685, "correctional": 20873, "submarine": 6982, "##ep": 13699, "##\u91ce": 30489, "heroine": 18869, "outstretched": 21059, "bought": 4149, "mariana": 22097, "wearing": 4147, "filter": 11307, "[unused4]": 5, "qur": 23183, "recounts": 23412, "720": 22857, "ben": 3841, "dining": 7759, "churchill": 10888, "shaggy": 25741, "\u0937": 1337, "collect": 8145, "defective": 28829, "profession": 9518, "hissing": 26386, "banco": 28678, "www": 7479, "positions": 4460, "coa": 28155, "##kie": 11602, "##omo": 19506, "##storm": 19718, "omaha": 12864, "1924": 4814, "anxiously": 23403, "plight": 24525, "worried": 5191, "contempt": 17152, "faust": 24021, "clerk": 7805, "338": 27908, "boost": 12992, "cooperation": 6792, "albanians": 25267, "radha": 26498, "enfield": 25821, "masks": 15806, "\u0440": 1195, "biological": 6897, "newell": 28052, "defect": 21262, "terrorists": 15554, "liquid": 6381, "##tyn": 25680, "manchester": 5087, "mater": 16289, "[unused463]": 468, "fargo": 23054, "addicted": 23042, "[unused816]": 821, "elephants": 16825, "abundance": 14531, "confinement": 21551, "sprint": 9043, "##\u0cbe": 29938, "kun": 28919, "1689": 22685, "darrell": 23158, "mueller": 26774, "##buck": 24204, "graphs": 19287, "##rked": 19849, "dagger": 10794, "boil": 26077, "dmitry": 22141, "assessment": 7667, "beats": 10299, "salamanca": 29608, "dogg": 28844, "[unused357]": 362, "sandwich": 11642, "revision": 13921, "impose": 17607, "[unused730]": 735, "encouragement": 15846, "##eka": 19025, "tricked": 24929, "##foot": 13064, "mostly": 3262, "biplane": 28686, "representing": 5052, "obe": 15578, "##dio": 20617, "rudolf": 12794, "clearing": 8430, "##mite": 23419, "iv": 4921, "comforting": 16334, "soloists": 27516, "mustache": 28786, "##rose": 13278, "kathryn": 20484, "##oder": 27381, "##back": 5963, "ce": 8292, "gum": 16031, "hopping": 26397, "insists": 16818, "##fusion": 20523, "segregation": 18771, "gables": 27008, "senior": 3026, "##\u8cb4": 30479, "excerpt": 28142, "vowel": 12710, "##val": 10175, "ruin": 10083, "bro": 22953, "##opped": 27288, "edward": 3487, "speculative": 23250, "vested": 26003, "vomiting": 24780, "onboard": 27120, "instances": 12107, "camping": 13215, "##way": 4576, "kilograms": 18857, "[unused394]": 399, "##pid": 23267, "alexa": 24969, "belongs": 7460, "1855": 8492, "##\u2092": 30091, "diagrams": 26309, "scientist": 7155, "technique": 6028, "sabrina": 21876, "##ri": 3089, "##\u02b2": 29707, "##ny": 4890, "barnes": 9957, "##ures": 14900, "\u590f": 1808, "sw": 25430, "everton": 18022, "wal": 24547, "##la": 2721, "\u0cb0": 1401, "fields": 4249, "bose": 21299, "punk": 7196, "reza": 26323, "futsal": 21921, "forming": 5716, "differential": 11658, "##lbert": 23373, "democratic": 3537, "veil": 15562, "##tra": 6494, "furnished": 19851, "resurgence": 26303, "superior": 6020, "##worth": 5172, "swamp": 11963, "white": 2317, "motionless": 19917, "af": 21358, "##sho": 22231, "giggles": 26466, "##mbit": 28878, "pizza": 10733, "[unused539]": 544, "requirements": 5918, "oswald": 17411, "dracula": 18500, "remainder": 6893, "erect": 14908, "prague": 8634, "##alic": 27072, "nora": 12306, "delay": 8536, "disk": 9785, "mechanism": 7337, "resides": 11665, "het": 21770, "##line": 4179, "charities": 15430, "graphics": 8389, "##oya": 18232, "ng": 12835, "assembled": 9240, "pollard": 25513, "attack": 2886, "##\u0458": 29761, "whom": 3183, "subject": 3395, "whose": 3005, "viii": 9937, "fabricated": 24212, "initiate": 17820, "[unused381]": 386, "subdistrict": 24150, "usage": 8192, "sinister": 16491, "##bour": 25127, "1890": 6193, "[unused26]": 27, "trough": 23389, "challenging": 10368, "silas": 18553, "gorgeous": 9882, "to": 2000, "originated": 7940, "set": 2275, "olympics": 3783, "smacked": 19203, "packaged": 21972, "requirement": 9095, "##cona": 24366, "messenger": 11981, "\u057e": 1235, "##20": 11387, "##dom": 9527, "transaction": 12598, "##than": 21604, "##\u044d": 29756, "secrets": 7800, "##champ": 25450, "quieter": 27486, "##\u5f18": 30369, "relationship": 3276, "##rke": 25074, "declaring": 13752, "calcium": 13853, "strictly": 9975, "##\u03b6": 29724, "waking": 12447, "[unused986]": 991, "##dal": 9305, "freaked": 22783, "landscapes": 12793, "##mbe": 18552, "consumers": 10390, "harrison": 6676, "frenchman": 26529, "##\u09aa": 29903, "carvings": 22838, "cosmetic": 25536, "km\u00b2": 3186, "stumbled": 9845, "cochrane": 22329, "glacial": 17381, "kali": 19924, "ain": 7110, "saddle": 12279, "beaten": 7854, "\u79be": 1927, "richie": 14411, "digits": 16648, "gallantry": 22111, "footing": 22849, "\u2228": 1603, "##athing": 22314, "although": 2348, "mum": 12954, "takahashi": 25585, "manufactured": 7609, "praise": 8489, "\u014b": 1106, "##escence": 28964, "##\u0f56": 29967, "bouquet": 26700, "programmers": 28547, "##romatic": 23645, "rendezvous": 20558, "##ration": 8156, "essays": 8927, "driving": 4439, "scholarships": 15691, "danzig": 26669, "arena": 5196, "dipping": 23427, "##ject": 20614, "##\u4e8b": 30277, "shang": 29382, "lithium": 22157, "neoclassical": 22657, "candidates": 5347, "criterion": 19229, "internet": 4274, "simultaneous": 17424, "celtic": 8730, "ups": 11139, "prominently": 14500, "shade": 8703, "vaguely": 15221, "welsh": 6124, "##nob": 25083, "##lous": 15534, "our": 2256, "##\u2011": 30049, "killed": 2730, "\u7592": 1913, "password": 20786, "luggage": 17434, "spelled": 11479, "357": 26231, "##dai": 21351, "\u0636": 1285, "boardwalk": 29496, "donkey": 20325, "##making": 12614, "clenched": 8555, "pancakes": 28470, "gardening": 21529, "artificial": 7976, "huddersfield": 19715, "amp": 23713, "sighting": 29426, "##m": 2213, "casino": 9270, "apostle": 20121, "montpellier": 28153, "[unused434]": 439, "assumes": 15980, "warmth": 8251, "arches": 13540, "nor": 4496, "infected": 10372, "peugeot": 26385, "protected": 5123, "tissues": 14095, "rubble": 17538, "##\u00f8y": 27688, "garland": 17017, "michaels": 17784, "##\u0442": 22919, "\u043c": 1191, "parkinson": 20310, "##anda": 13832, "bonn": 19349, "commemorative": 17524, "##alle": 24164, "centenary": 17705, "michigan": 4174, "watched": 3427, "translation": 5449, "ivy": 7768, "maybe": 2672, "[unused842]": 847, "compliant": 24577, "indicates": 7127, "##\u0bc7": 29934, "##cion": 10446, "##\u0b9f": 29920, "221": 19594, "passed": 2979, "pavel": 18635, "\u1165": 1472, "horrors": 22812, "decoration": 11446, "otago": 21831, "levels": 3798, "tread": 29449, "ministry": 3757, "today": 2651, "[unused110]": 115, "delaney": 22101, "seismic": 22630, "##del": 9247, "slated": 18517, "sitcom": 13130, "##tad": 17713, "plague": 11629, "bets": 29475, "baxter": 14664, "1653": 29309, "augustine": 14060, "uncomfortable": 8796, "&": 1004, "braun": 21909, "britney": 29168, "tornado": 11352, "christian": 3017, "miranda": 9392, "craftsmen": 25736, "crimes": 6997, "anwar": 28372, "different": 2367, "[unused505]": 510, "beef": 12486, "\u2091": 1561, "##rang": 24388, "hacker": 23307, "cadiz": 26342, "glue": 25238, "##ox": 11636, "##co": 3597, "1672": 27253, "seniors": 15995, "##folk": 29284, "sanders": 12055, "arden": 26225, "linebacker": 15674, "red": 2417, "militants": 17671, "freight": 8441, "##onal": 16026, "skulls": 21542, "expectations": 10908, "timothy": 10805, "balloon": 13212, "manny": 16320, "subsistence": 27667, "##iii": 28954, "1679": 27924, "worthless": 22692, "figuring": 23218, "217": 20335, "##vc": 25465, "nightmare": 10103, "joel": 8963, "owens": 14824, "characteristic": 8281, "regain": 12452, "##ncies": 14767, "##xon": 22500, "continued": 2506, "greeks": 13176, "popular": 2759, "pasha": 14292, "bully": 20716, "keepers": 24018, "ever": 2412, "##person": 27576, "extras": 26279, "cultivated": 13237, "lok": 13660, "showcases": 27397, "concerned": 4986, "parasites": 23996, "oral": 8700, "rees": 22131, "accounted": 14729, "erected": 7019, "[unused901]": 906, "titus": 18828, "chain": 4677, "employed": 4846, "roar": 11950, "checks": 14148, "[unused912]": 917, "roadside": 25131, "40th": 16541, "origins": 7321, "##aby": 21275, "fabric": 8313, "\u66f8": 1871, "\u0142": 1105, "insult": 15301, "##zano": 24147, "cryptic": 26483, "##roller": 26611, "sitting": 3564, "sparkle": 26831, "\u2208": 1596, "meaningful": 15902, "boxes": 8378, "holds": 4324, "midnight": 7090, "fish": 3869, "chiefs": 9058, "##ist": 2923, "mas": 16137, "rendition": 19187, "deserves": 17210, "##opa": 29477, "##tera": 14621, "repeated": 5567, "enacted": 11955, "uncover": 26944, "isis": 18301, "piers": 16067, "analyze": 17908, "##race": 22903, "metallic": 12392, "dept": 29466, "1864": 6717, "##ctum": 27272, "mounds": 19503, "melee": 27868, "##udes": 22087, "encircled": 25759, "promotional": 10319, "kenya": 7938, "pounded": 13750, "regulating": 21575, "winked": 14217, "portraits": 9668, "dev": 16475, "madagascar": 11934, "##85": 27531, "swift": 9170, "buenos": 9204, "[unused253]": 258, "combustion": 16513, "crumbling": 24827, "executing": 23448, "##ruck": 29314, "springs": 6076, "weekend": 5353, "prescribed": 16250, "stool": 14708, "lacy": 19959, "sr": 5034, "relational": 28771, "lateral": 11457, "balls": 7395, "atoms": 13353, "admire": 19837, "change": 2689, "##viere": 27087, "reacting": 24868, "majesty": 9995, "frequently": 4703, "butterfly": 9112, "sipped": 17735, "gma": 20917, "calabria": 29430, "##tics": 14606, "shaw": 8233, "##onte": 28040, "original": 2434, "excuses": 21917, "swami": 20087, "##apes": 29040, "coulter": 28293, "##urance": 25863, "danes": 27476, "##bat": 14479, "##lub": 27959, "##is": 2483, "\u672c": 1876, "##\u091c": 29855, "vascular": 21449, "hoarse": 21221, "##standing": 24911, "docks": 15093, "##lved": 26832, "snails": 13482, "offenders": 19591, "accidents": 13436, "philosophers": 17586, "pauses": 19623, "markham": 26197, "far": 2521, "\u0252": 1111, "theme": 4323, "thatcher": 21127, "##ya": 3148, "##lding": 24573, "pius": 14363, "galloway": 22372, "[unused974]": 979, "florida": 3516, "blushed": 19370, "precedence": 23359, "dysfunction": 28466, "hollow": 8892, "[unused424]": 429, "vishnu": 17647, "separated": 5459, "mina": 19808, "##firmed": 23141, "barnett": 20073, "receiving": 4909, "inaugural": 7725, "roam": 25728, "briggs": 15487, "hanging": 5689, "##33": 22394, "barron": 23594, "forthcoming": 16875, "traded": 7007, "albeit": 12167, "##llation": 20382, "az": 17207, "backward": 8848, "ict": 25891, "architecture": 4294, "\u3044": 1647, "santiago": 8728, "pandit": 29331, "worldwide": 4969, "[unused470]": 475, "##cter": 21162, "cries": 12842, "73": 6421, "stronghold": 16995, "larkin": 25570, "pinning": 22866, "captive": 12481, "##cb": 27421, "topical": 25665, "##genic": 16505, "investigating": 11538, "##girl": 15239, "metric": 12046, "murders": 9916, "lagos": 16738, "cavendish": 23570, "katharine": 25739, "parry": 20803, "##ssler": 23385, "ru": 21766, "##estra": 26199, "vain": 15784, "hawaii": 7359, "traits": 12955, "relative": 5816, "chilling": 27017, "absently": 21284, "strode": 11885, "arteries": 28915, "siege": 6859, "squeeze": 11025, "comprehension": 26683, "katy": 17870, "courageous": 26103, "mandolin": 17687, "heavily": 4600, "pieces": 4109, "abroad": 6917, "suffrage": 15178, "weighs": 21094, "churning": 26765, "woodrow": 23954, "saint": 3002, "chiang": 17684, "##uso": 26658, "destroying": 9846, "xl": 28712, "##eum": 14820, "boulder": 13264, "##hood": 9021, "##mme": 20058, "1903": 5778, "lowered": 6668, "putnam": 20230, "yoga": 13272, "recovery": 7233, "palestine": 8976, "complain": 17612, "##bers": 17198, "bisexual": 22437, "aye": 13442, "color": 3609, "manners": 14632, "il": 6335, "375": 18034, "fitch": 26062, "border": 3675, "deportation": 23702, "hilly": 22800, "dealings": 24069, "1650": 21875, "rags": 26346, "christensen": 24189, "abbot": 11428, "laura": 6874, "unseen": 16100, "refused": 4188, "bag": 4524, "surrounding": 4193, "examiner": 19684, "distributions": 20611, "sticks": 12668, "ip": 12997, "bouts": 23666, "boone": 15033, "moans": 24675, "blockbuster": 27858, "memories": 5758, "thud": 20605, "1688": 24082, "northernmost": 22037, "##tite": 23096, "catfish": 23723, "flap": 20916, "gives": 3957, "hokkaido": 20826, "ashland": 24346, "references": 7604, "turned": 2357, "mix": 4666, "##hdi": 22960, "bartender": 15812, "scooted": 24289, "dynamite": 21719, "cigarettes": 15001, "annals": 16945, "pep": 27233, "exhibit": 8327, "##\u00bb": 29663, "clash": 13249, "africans": 18076, "sentences": 11746, "manages": 9020, "##grass": 19673, "sherlock": 20052, "interstate": 7553, "owing": 11427, "tumble": 28388, "licking": 17033, "##rmi": 28550, "absorbing": 20998, "\u09bf": 1379, "coping": 27520, "rio": 5673, "remote": 6556, "eagles": 8125, "cavity": 17790, "##ven": 8159, "locality": 10246, "foraging": 26912, "coop": 21859, "\u0927": 1326, "##tta": 5946, "ambition": 16290, "sideways": 12579, "352": 28906, "fitzgerald": 11864, "ace": 9078, "hamburger": 24575, "##\u099f": 29895, "trustee": 13209, "##ense": 16700, "reads": 9631, "performing": 4488, "argentina": 5619, "huddled": 20258, "##ved": 7178, "snapped": 5941, "faye": 19243, "[unused736]": 741, "classification": 5579, "custody": 9968, "corrupted": 27279, "\u05e2": 1259, "tirana": 24631, "##isches": 27239, "weekdays": 19759, "institute": 2820, "spins": 23371, "professions": 22797, "dallas": 5759, "##sio": 20763, "vegetarian": 23566, "unicode": 27260, "motions": 15323, "ingram": 23231, "lowell": 15521, "eurasian": 23399, "origin": 4761, "[unused877]": 882, "risen": 13763, "mainz": 19876, "ambush": 15283, "whilst": 5819, "coil": 17085, "gladly": 24986, "##\u4f50": 30290, "macmillan": 15434, "analog": 11698, "##jal": 25787, "assistance": 5375, "headache": 14978, "essence": 11305, "##umatic": 25360, "melissa": 9606, "unexpected": 9223, "shivers": 28464, "pickering": 27078, "##\u093e": 29876, "marriage": 3510, "perfection": 15401, "heard": 2657, "\u30ad": 1701, "fireworks": 16080, "##43": 23777, "compatibility": 21778, "##xi": 9048, "put": 2404, "goodwin": 19928, "clare": 11152, "##oth": 14573, "blackberry": 25935, "nicky": 20158, "##bin": 8428, "canucks": 26177, "##ities": 6447, "orange": 4589, "##key": 14839, "citation": 11091, "##oured": 16777, "attendees": 19973, "##edes": 18352, "promised": 5763, "rosenberg": 21069, "specimen": 11375, "fischer": 13042, "tried": 2699, "clamped": 18597, "hm": 20287, "christopher": 5696, "cones": 23825, "nilsson": 29376, "squire": 21263, "##taro": 28160, "verlag": 14552, "journalism": 8083, "kemp": 20441, "##path": 15069, "mcgregor": 23023, "colorful": 14231, "horizontal": 9876, "##chia": 20881, "refugee": 13141, "meadows": 13524, "tactic": 19717, "arguments": 9918, "increasing": 4852, "characterized": 7356, "380": 17014, "memorial": 3986, "##waite": 29601, "publications": 5523, "wrapped": 5058, "[unused783]": 788, "##boat": 11975, "rovers": 9819, "multiple": 3674, "flanders": 13998, "baskets": 25946, "lcd": 27662, "flutes": 28453, "bobbed": 29579, "##kker": 23793, "storey": 11676, "dime": 27211, "best": 2190, "sandals": 24617, "sloane": 17558, "candidacy": 17057, "someone": 2619, "lightweight": 12038, "drastically": 21040, "curate": 27530, "[unused923]": 928, "crashes": 19119, "\u03c7": 1177, "contradictory": 27894, "innings": 7202, "electoral": 6092, "newfoundland": 11944, "##idge": 13623, "ignition": 17446, "lam": 16983, "overtime": 12253, "permanent": 4568, "stones": 6386, "##lad": 27266, "[unused806]": 811, "tense": 9049, "majority": 3484, "##ll": 3363, "##ial": 4818, "foundation": 3192, "leonid": 27316, "##oteric": 29112, "joseph": 3312, "marion": 10115, "clary": 13145, "pledged": 16970, "##room": 9954, "##lto": 23223, "cracked": 9630, "brunei": 18692, "killer": 6359, "##\u0433": 29741, "##oin": 28765, "stepped": 3706, "sane": 22856, "\u201a": 1522, "shooter": 13108, "shortened": 12641, "resigned": 5295, "1957": 3890, "##tology": 23479, "##itte": 27100, "[unused759]": 764, "lesser": 8276, "nutritional": 28268, "1a": 20720, "##zy": 9096, "smoking": 9422, "registers": 18687, "apprentice": 13357, "##\u00ab": 29654, "seed": 6534, "##helm": 24546, "scanner": 26221, "##mbs": 29232, "separates": 18600, "serena": 14419, "being": 2108, "allow": 3499, "##per": 4842, "[unused933]": 938, "strikes": 9326, "divorced": 9196, "diplomatic": 8041, "let": 2292, "##uez": 29488, "contractual": 27948, "##\u2502": 30143, "##twined": 21077, "bethel": 19375, "triggering": 29170, "goose": 13020, "##ws": 9333, "[unused376]": 381, "orchestra": 4032, "utterly": 12580, "##dded": 19520, "##aria": 10980, "[unused419]": 424, "series": 2186, "recover": 8980, "##\u10d8": 29981, "tariffs": 26269, "vents": 28287, "keynote": 25569, "1939": 3912, "##\u00b0": 7737, "byte": 24880, "kaye": 23686, "respects": 17475, "\u09ae": 1370, "budget": 5166, "streets": 4534, "shaded": 25273, "treated": 5845, "draft": 4433, "benz": 17770, "banda": 24112, "##haven": 14650, "trumpet": 9368, "[unused727]": 732, "spur": 12996, "madden": 24890, "farming": 7876, "joe": 3533, "monastery": 6408, "##\u2248": 30133, "bulk": 9625, "requiem": 21199, "##ted": 3064, "craftsman": 26286, "possibly": 4298, "tx": 19067, "guru": 11972, "[unused392]": 397, "softball": 12585, "nonlinear": 27400, "welfare": 7574, "consultants": 22283, "\u266d": 1627, "gerhard": 21037, "zoe": 11199, "litres": 25783, "##\u09ad": 29905, "judah": 23022, "comeback": 12845, "valued": 11126, "excavations": 14018, "ufo": 24321, "learning": 4083, "##most": 11800, "deportivo": 23696, "circular": 8206, "\u05db": 1252, "##\u21c4": 30117, "reservation": 11079, "##\u674e": 30403, "marco": 8879, "conditions": 3785, "##oid": 9314, "assassins": 18364, "kuwait": 13085, "##asurable": 28329, "shiva": 12535, "symmetric": 19490, "rpm": 11575, "fashionable": 19964, "##\u0f0d": 29961, "[unused668]": 673, "nikki": 14470, "failure": 4945, "borg": 28709, "low": 2659, "confederacy": 18179, "outpost": 21080, "captured": 4110, "ensued": 18942, "discuss": 6848, "gough": 29124, "##uma": 12248, "readers": 8141, "publicly": 7271, "##box": 8758, "story": 2466, "interested": 4699, "tabloid": 24173, "ao": 20118, "mistaken": 13534, "closet": 9346, "fan": 5470, "[unused34]": 35, "overhaul": 18181, "karel": 28021, "##gies": 17252, "moor": 16808, "antonia": 24272, "advisers": 24205, "quoted": 9339, "##iance": 28335, "##lden": 28476, "learns": 10229, "##lem": 16930, "hinges": 25484, "##tures": 22662, "bothering": 17067, "regards": 12362, "many": 2116, "[unused945]": 950, "tender": 8616, "##dust": 24220, "##fest": 14081, "coordinating": 19795, "##kee": 20553, "demonstrates": 16691, "1625": 26263, "##\u898b": 30474, "westphalia": 22952, "gulped": 25411, "slumped": 14319, "##skin": 29334, "overlapping": 20567, "teammate": 10809, "cheered": 25471, "played": 2209, "compiled": 9227, "orchestral": 13533, "dick": 5980, "##dern": 25888, "historians": 7862, "##missible": 26770, "ting": 28642, "concerts": 6759, "##\u884c": 30471, "\u65b0": 1862, "taxon": 28521, "lullaby": 29149, "explanations": 17959, "mack": 11349, "englishman": 25244, "schooner": 21567, "percussion": 6333, "try": 3046, "dislike": 18959, "destroyed": 3908, "inheritance": 12839, "roberto": 10704, "##rle": 20927, "wr": 23277, "525": 25621, "##hus": 9825, "##anne": 20147, "unopposed": 17123, "valuable": 7070, "##houses": 15666, "specialists": 15744, "glimpse": 12185, "bones": 5944, "gould": 14913, "base": 2918, "stairs": 5108, "pleasing": 24820, "mongols": 22235, "intense": 6387, "laboratory": 5911, "macleod": 23075, "transactions": 11817, "1699": 28718, "momentum": 11071, "vulcan": 25993, "bal": 28352, "proposition": 14848, "examine": 11628, "##zaki": 18637, "waterway": 23668, "appoint": 16823, "nme": 23770, "\u2012": 1515, "shaky": 15311, "facebook": 9130, "mendez": 28950, "cantor": 26519, "departing": 15971, "dripping": 14309, "anderson": 5143, "##sef": 20106, "affectionately": 28734, "irene": 12855, "mab": 26661, "dance": 3153, "##nut": 24072, "unprecedented": 15741, "##anies": 28064, "kicks": 14590, "greenwich": 13861, "prehistoric": 14491, "ho": 7570, "sprinted": 25156, "orion": 18747, "euroleague": 26093, "##fers": 24396, "[unused838]": 843, "response": 3433, "urine": 17996, "fabrics": 25123, "motorcycles": 18580, "curt": 20099, "bologna": 14102, "goofy": 27243, "ardent": 25314, "strung": 23509, "##tized": 23355, "emergency": 5057, "##tist": 16774, "rods": 19485, "hummed": 26747, "allotted": 23932, "welcomed": 10979, "varying": 9671, "predominant": 21047, "eps": 20383, "function": 3853, "intimacy": 20893, "fungal": 28079, "##\u2077": 30076, "wo": 24185, "delight": 12208, "##bey": 19182, "##stellar": 29028, "leaps": 29195, "envy": 21103, "##owski": 15249, "##stituting": 21532, "stranded": 15577, "torture": 8639, "mercer": 13081, "##vern": 23062, "##\u5bbf": 30352, "\u1d35": 1493, "##tated": 16238, "seal": 7744, "bearing": 7682, "ga": 11721, "additional": 3176, "fresno": 20840, "\u660e": 1865, "##llum": 20845, "##carbon": 26190, "187": 19446, "costly": 17047, "arabia": 9264, "coarse": 20392, "[unused968]": 973, "wadi": 28380, "kazakhstan": 11769, "underwent": 9601, "bequeathed": 27180, "relates": 14623, "pork": 15960, "##cas": 15671, "\uff01": 1986, "##ceptive": 28687, "##tative": 27453, "uncomfortably": 22502, "complaining": 17949, "stuffed": 11812, "[unused358]": 363, "steer": 20634, "nguyen": 16577, "##train": 23654, "incredibly": 11757, "bosses": 23029, "employers": 12433, "starting": 3225, "74": 6356, "whichever": 29221, "##factory": 21450, "\u0452": 1211, "##\u04cf": 29765, "thrilling": 26162, "hailed": 16586, "asher": 17243, "tells": 4136, "##\u7a7a": 30456, "anthony": 4938, "purported": 27023, "46": 4805, "##iring": 24771, "concealed": 14091, "honored": 8686, "[unused812]": 817, "residue": 21755, "melodies": 16106, "quartermaster": 24688, "##bourne": 11634, "[unused432]": 437, "31st": 17089, "25": 2423, "exponential": 27258, "assyrian": 19950, "\u6ca2": 1898, "propped": 16863, "interrogation": 16871, "\u2087": 1554, "[unused515]": 520, "##zers": 16750, "bun": 21122, "coaches": 7850, "##ssi": 18719, "##ring": 4892, "[unused367]": 372, "\u30c3": 1711, "##tc": 13535, "sentai": 28650, "##working": 21398, "exhibitions": 8596, "italianate": 25302, "assigns": 24022, "remark": 17674, "##iques": 19516, "##ect": 22471, "former": 2280, "precinct": 18761, "disclosure": 19380, "meek": 28997, "##owed": 15096, "##shu": 14235, "methodology": 16134, "##cer": 17119, "app": 10439, "waitress": 13877, "improve": 5335, "slain": 19668, "celaena": 29252, "marche": 28791, "shoulders": 4065, "##rland": 18324, "shelters": 17177, "##off": 7245, "fleeing": 14070, "##gua": 19696, "deploy": 21296, "consulate": 19972, "108": 10715, "##\u6c11": 30418, "marvin": 13748, "\u03c4": 1174, "##morphic": 18078, "reflects": 11138, "##odon": 28716, "##no": 3630, "llc": 11775, "favorites": 20672, "[unused569]": 574, "##\u0965": 29881, "eton": 21687, "separating": 14443, "pious": 25020, "244": 24194, "##qua": 16211, "rotating": 13618, "##ber": 5677, "1841": 9840, "hannover": 29209, "[unused573]": 578, "deterioration": 26118, "##nder": 11563, "##\u2018": 30055, "commemorate": 13415, "factors": 5876, "outnumbered": 21943, "##nx": 26807, "unchanged": 15704, "true": 2995, "shortlisted": 21353, "conservatives": 11992, "scarcely": 20071, "headquartered": 9403, "advent": 13896, "goran": 28356, "crucial": 10232, "instinctively": 16607, "dogs": 6077, "prix": 5431, "dashboard": 24923, "##heim": 8049, "census": 2883, "bosnia": 9562, "munitions": 21061, "##cule": 21225, "consent": 9619, "angled": 18756, "[unused713]": 718, "##bu": 8569, "##nio": 27678, "subdivision": 12572, "##ind": 22254, "potato": 14557, "plumbing": 27902, "\u5b87": 1819, "ate": 8823, "noel": 10716, "get": 2131, "phyllis": 20328, "##rad": 12173, "query": 23032, "voting": 6830, "alumnus": 19678, "##holz": 28094, "penal": 18476, "\u0283": 1130, "kb": 21677, "rubbed": 7503, "##torium": 24390, "comedy": 4038, "bernhard": 21432, "plunging": 29059, "clipped": 20144, "spurs": 18205, "yi": 12316, "randomly": 18154, "lizards": 23898, "##eral": 21673, "##icides": 22698, "##urities": 29366, "cheney": 23745, "##raphy": 26228, "qatar": 12577, "swiss": 5364, "willingness": 19732, "##omy": 16940, "sorrow": 14038, "##oj": 29147, "tel": 10093, "oaks": 13396, "stained": 9702, "raaf": 22709, "##astic": 20875, "falsely": 23123, "proxy": 24540, "\u30e9": 1731, "overwhelmed": 13394, "clad": 13681, "gamer": 27911, "enforced": 16348, "eng": 25540, "1776": 13963, "punjab": 9213, "##den": 4181, "popcorn": 24593, "##vious": 24918, "selected": 3479, "influenced": 5105, "zones": 10019, "##elle": 14774, "god": 2643, "##sic": 19570, "porsche": 16099, "passengers": 5467, "jaipur": 28355, "selangor": 28904, "##tara": 27115, "##tory": 7062, "##ards": 18117, "pip": 28315, "##\u2660": 30150, "cylinder": 7956, "associates": 9228, "[unused623]": 628, "mice": 12328, "faa": 17032, "pretending": 12097, "flames": 7311, "##x": 2595, "genuinely": 15958, "\u624c": 1859, "dissipated": 22572, "technically": 10892, "terri": 26568, "1960": 3624, "presentation": 8312, "glitter": 27566, "slept": 7771, "detachments": 29568, "chant": 16883, "##mour": 20360, "dilapidated": 29283, "##taff": 22542, "rook": 28620, "afternoons": 24738, "355": 26271, "##lga": 27887, "surveyor": 17169, "##dya": 25838, "##rim": 20026, "advocated": 11886, "go": 2175, "##zio": 12426, "breeders": 20823, "jack": 2990, "varsity": 11710, "marred": 24563, "##ucible": 21104, "correct": 6149, "117": 12567, "[unused949]": 954, "latin": 3763, "augusto": 29085, "[unused941]": 946, "##nsky": 25655, "spends": 15970, "51st": 26017, "jian": 29214, "fay": 23201, "comrade": 27661, "detector": 19034, "sydney": 3994, "##fm": 16715, "dancing": 5613, "##kus": 22332, "causal": 28102, "approve": 14300, "##cia": 7405, "dealers": 16743, "1795": 13397, "ability": 3754, "forcibly": 20951, "##lift": 18412, "scientology": 23845, "deadline": 15117, "##\u057f": 29783, "holdings": 9583, "girls": 3057, "dancers": 10487, "\u2083": 1550, "hobbs": 23748, "fabian": 21174, "settling": 9853, "resisted": 13335, "hunger": 9012, "intimidated": 28028, "[unused468]": 473, "##nen": 10224, "##ju": 9103, "visibly": 19397, "tennis": 5093, "[unused101]": 106, "preoccupied": 23962, "254": 22234, "##ensburg": 28812, "##tana": 20496, "sniff": 27907, "##ost": 14122, "[unused24]": 25, "prepares": 20776, "reserve": 3914, "box": 3482, "##hed": 9072, "intercept": 19115, "arithmetic": 20204, "interceptor": 24727, "mmm": 25391, "neil": 6606, "reef": 12664, "##scent": 27654, "mccain": 19186, "bolton": 12118, "##fan": 15143, "snowfall": 26043, "bane": 25163, "include": 2421, "93": 6109, "##ening": 7406, "##zle": 29247, "spaced": 19835, "effort": 3947, "shape": 4338, "styles": 6782, "##akh": 27573, "##aka": 11905, "tigers": 7600, "\u5149": 1770, "badminton": 14618, "discharge": 11889, "##lik": 18393, "[unused50]": 51, "##long": 10052, "backbone": 21505, "berwick": 24957, "trees": 3628, "344": 29386, "acres": 4631, "motorcycle": 9055, "##\u9673": 30498, "threat": 5081, "haute": 18535, "[unused967]": 972, "nt": 23961, "##vinsky": 27704, "twitter": 10474, "streak": 9039, "hearts": 8072, "solos": 24339, "midway": 12213, "nautical": 11339, "ley": 25866, "buddha": 11903, "##um": 2819, "vote": 3789, "##cies": 9243, "espana": 20678, "##erton": 20995, "trap": 8132, "shrinking": 28375, "turnpike": 17116, "gamma": 13091, "leach": 24520, "1907": 5528, "sunken": 23470, "shillings": 29332, "bedfordshire": 28430, "firearm": 23646, "##yam": 14852, "shafts": 20542, "birmingham": 6484, "\u30a4": 1695, "[unused277]": 282, "everett": 15160, "packed": 8966, "natalie": 10829, "configurations": 22354, "beta": 8247, "psychologist": 15034, "algae": 18670, "ashford": 26545, "disciplinary": 17972, "johnnie": 27716, "painting": 4169, "##cca": 16665, "##athlon": 17563, "rec": 28667, "arenas": 26434, "540": 20263, "aroused": 18391, "03": 6021, "psycho": 18224, "enrique": 15769, "company": 2194, "cardiac": 15050, "298": 27240, "setting": 4292, "stock": 4518, "##nology": 21020, "for": 2005, "huge": 4121, "declines": 26451, "panzer": 16946, "wiping": 14612, "##\u0f0b": 29960, "shovel": 24596, "patron": 9161, "anticipating": 26481, "broughton": 29187, "retailer": 20196, "shipment": 22613, "kitchens": 26051, "impacted": 19209, "diana": 8805, "conquest": 9187, "319": 26499, "##zos": 28370, "dropping": 7510, "corresponded": 27601, "auguste": 20758, "thereafter": 6920, "countries": 3032, "mansions": 26842, "soft": 3730, "piston": 16733, "tribune": 10969, "malaya": 19979, "continue": 3613, "psychological": 8317, "decimal": 26066, "clock": 5119, "ape": 23957, "till": 6229, "##tila": 26065, "gus": 12670, "clancy": 24530, "##nted": 14706, "buzzing": 20386, "metre": 7924, "##rac": 22648, "flashes": 16121, "406": 27433, "group": 2177, "dangerous": 4795, "boot": 9573, "chen": 8802, "greeted": 11188, "utilities": 16548, "expertise": 11532, "specific": 3563, "4th": 4343, "##nsk": 25564, "madras": 12993, "arrow": 8612, "perpendicular": 19581, "##vara": 24516, "leases": 29597, "[unused303]": 308, "marsh": 9409, "##\u3061": 30188, "party": 2283, "bass": 3321, "inspire": 18708, "charity": 5952, "lawyers": 9559, "jolly": 22193, "gospels": 24131, "wilcox": 23926, "authorization": 20104, "chili": 20238, "viruses": 18191, "captivity": 16187, "colon": 16844, "accommodated": 28959, "diploma": 9827, "reconciliation": 16088, "offense": 10048, "sue": 9790, "##ums": 18163, "nhl": 7097, "repetition": 23318, "broadcasters": 18706, "\u056f": 1227, "jealousy": 14225, "csi": 22174, "recognized": 3858, "captains": 15755, "standard": 3115, "gloucester": 13370, "rna": 12987, "directory": 14176, "breasts": 12682, "damages": 12394, "bathed": 24614, "[unused723]": 728, "measurements": 11702, "blog": 9927, "178": 19289, "alvaro": 24892, "wry": 24639, "[unused368]": 373, "##\u98a8": 30503, "tracking": 9651, "wren": 16255, "pollen": 22482, "yankees": 11081, "##lom": 21297, "orioles": 18893, "catholicism": 16138, "##\u00b2": 10701, "ode": 24040, "confirmed": 4484, "brigades": 14589, "bear": 4562, "mcmillan": 27436, "sits": 7719, "tornadoes": 22668, "##media": 16969, "exhibiting": 22922, "afraid": 4452, "footprints": 24629, "##care": 16302, "##ives": 24653, "huron": 21899, "questioned": 8781, "epsilon": 28038, "skate": 17260, "hunched": 20498, "\u3046": 1648, "commissioners": 12396, "##ieri": 21939, "wall": 2813, "rumored": 22710, "intercity": 20651, "speak": 3713, "miner": 18594, "persuaded": 11766, "someplace": 24956, "blackness": 19573, "crate": 27297, "##jic": 25008, "foreword": 23059, "[unused312]": 317, "##din": 8718, "morals": 25288, "##isi": 17417, "##erus": 21608, "lego": 23853, "45": 3429, "##glio": 29480, "dismissal": 15322, "##nical": 20913, "attracting": 15411, "minerva": 27383, "clubs": 4184, "[unused5]": 6, "optional": 11887, "io": 22834, "14": 2403, "downstream": 13248, "##itis": 13706, "campeonato": 17675, "##rgos": 22280, "guitarist": 5990, "requires": 5942, "##pal": 12952, "chemist": 15535, "##br": 19892, "##\u751f": 30436, "cry": 5390, "seo": 27457, "\u02be": 1147, "environment": 4044, "archibald": 15917, "downloadable": 26720, "follower": 22399, "\u2265": 1609, "shares": 6661, "roland": 8262, "\u5ddd": 1835, "pyrenees": 22696, "courtney": 14139, "croatia": 8097, "planning": 4041, "elton": 19127, "ports": 8831, "dun": 24654, "therefore": 3568, "portable": 12109, "spaniards": 20999, "memoir": 12558, "##bari": 25990, "##\u02e3": 29718, "sermons": 20855, "loomed": 24358, "parking": 5581, "1965": 3551, "characterization": 23191, "##tain": 18249, "\u222a": 1605, "grossing": 18244, "##put": 18780, "lucian": 18218, "idaho": 9795, "crimean": 20516, "\u02b2": 1141, "rd": 16428, "##ios": 10735, "[unused212]": 217, "georgie": 20280, "wings": 4777, "buren": 29470, "embodied": 25405, "virginity": 26970, "downhill": 19448, "##hos": 15006, "huang": 15469, "productivity": 15836, "unsigned": 27121, "chronicles": 11906, "preseason": 20038, "##dote": 23681, "quarterfinals": 9237, "nik": 23205, "##rte": 19731, "jessica": 8201, "statewide": 13486, "hooker": 17074, "impatience": 28011, "irregularities": 28868, "nothing": 2498, "dive": 11529, "[unused741]": 746, "##rya": 20444, "[unused364]": 369, "deployed": 7333, "[unused203]": 208, "portico": 23104, "320": 13710, "schmidt": 12940, "electrically": 29103, "painters": 12499, "abdul": 10298, "intermediate": 7783, "##arion": 27548, "helens": 24074, "tufts": 25252, "crete": 19111, "insanity": 19272, "##\u30a2": 30219, "min": 8117, "slaughtered": 23044, "niche": 18111, "dismounted": 29580, "trondheim": 26331, "##mare": 24376, "batteries": 10274, "1975": 3339, "san": 2624, "ushered": 23815, "##ents": 11187, "loved": 3866, "pinyin": 9973, "electors": 19165, "nearing": 23454, "flipping": 18497, "lucius": 15639, "crude": 13587, "##ng": 3070, "melbourne": 4940, "problematic": 18636, "brendan": 15039, "fried": 13017, "javier": 13824, "##agawa": 20812, "[unused348]": 353, "##wick": 7184, "titanium": 23431, "turns": 4332, "awakened": 20256, "##sby": 14478, "##was": 17311, "handheld": 27291, "anchorage": 21086, "acquitted": 18538, "rhapsody": 29395, "[unused75]": 76, "[unused501]": 506, "relevant": 7882, "wrongly": 29116, "\u51fa": 1774, "backed": 6153, "travelers": 15183, "##\u0dba": 29940, "##dd": 14141, "creative": 5541, "pavilion": 10531, "##ever": 22507, "##gers": 15776, "geoffrey": 11023, "hysterical": 25614, "##lash": 27067, "##yst": 27268, "pitchers": 23232, "##mounted": 27632, "client": 7396, "##pee": 28084, "oppression": 20489, "experienced": 5281, "##ately": 28239, "wimbledon": 13411, "##*": 29621, "##ere": 7869, "eritrea": 26040, "##\u0580": 29784, "##flow": 12314, "consortium": 12360, "##ique": 7413, "polk": 20819, "lust": 11516, "wages": 12678, "terrible": 6659, "##ntation": 23436, "stems": 12402, "selma": 28112, "webster": 11635, "keenan": 26334, "convincing": 13359, "zulu": 27359, "albanian": 9408, "1862": 6889, "genetic": 7403, "##\u3080": 30205, "transmissions": 21670, "expedition": 5590, "novgorod": 24338, "improving": 9229, "\u10d1": 1439, "switched": 7237, "inappropriate": 15884, "heck": 17752, "##vb": 26493, "appleton": 26050, "[unused94]": 95, "org": 8917, "brands": 9639, "argues": 9251, "rightful": 27167, "adjustable": 26404, "scramble": 25740, "##rmin": 27512, "one": 2028, "morales": 17103, "##uk": 6968, "##scope": 26127, "ceo": 5766, "##rian": 6862, "veterans": 8244, "brooke": 11535, "peng": 26473, "##ssed": 29417, "##llie": 23697, "##kow": 24144, "shepard": 22189, "270": 13756, "genres": 11541, "##feng": 24383, "royalist": 20796, "tiles": 13262, "##iche": 17322, "unlawful": 22300, "andres": 15614, "\u05e7": 1264, "000": 2199, "##atin": 20363, "milwaukee": 9184, "practiced": 9051, "occasion": 6686, "amassed": 22151, "central": 2430, "distrust": 29245, "translucent": 22897, "tennessee": 5298, "robin": 5863, "robotics": 21331, "protectorate": 20394, "weights": 15871, "mortality": 13356, "unions": 9209, "##tua": 26302, "battles": 7465, "eta": 27859, "##nging": 22373, "paved": 12308, "realises": 25924, "##hun": 17157, "nomadic": 21702, "authors": 6048, "##utnant": 24620, "##venor": 26806, "session": 5219, "blazing": 17162, "##vating": 26477, "caliphate": 28034, "jones": 3557, "coefficient": 19064, "##dation": 20207, "##\u694a": 30409, "memoirs": 13251, "handsome": 8502, "bread": 7852, "bounty": 17284, "##enas": 26474, "seventeenth": 15425, "armando": 26716, "northeastern": 8763, "banners": 23562, "durga": 28746, "[unused153]": 158, "hungarians": 24027, "##wang": 16600, "snuggled": 26867, "pinnacle": 26007, "##ylus": 18871, "##\u2016": 30054, "##\u1167": 30010, "renal": 25125, "da": 4830, "bonnie": 12220, "volumes": 6702, "politics": 4331, "[unused789]": 794, "visually": 17453, "truths": 23019, "##ants": 11390, "laurence": 10883, "stella": 11894, "##\u8eca": 30480, "820": 26667, "##grate": 22780, "##nya": 17238, "mickey": 11021, "##\u8033": 30463, "##sei": 20240, "imaging": 12126, "taylor": 4202, "denies": 23439, "mythical": 19336, "chestnut": 15655, "islands": 3470, "coke": 14492, "\u044c": 1207, "bar": 3347, "inches": 5282, "183": 18677, "aromatic": 25496, "##pc": 15042, "congregation": 7769, "now": 2085, "prescription": 20422, "sectors": 11105, "australia": 2660, "damascus": 16094, "substrate": 16305, "blend": 12586, "mono": 18847, "weddings": 20429, "remarkably": 17431, "unison": 18732, "eye": 3239, "gmbh": 18289, "essentially": 7687, "veronica": 13133, "version": 2544, "229": 22777, "float": 14257, "plea": 14865, "forums": 21415, "mercury": 8714, "revolt": 10073, "prologue": 18877, "biology": 7366, "\u00a33": 28182, "remixed": 17574, "processor": 13151, "##ov": 4492, "broken": 3714, "680": 23944, "coached": 8868, "manfred": 19149, "##dur": 24979, "##rence": 24413, "think": 2228, "del": 3972, "##diment": 21341, "calgary": 10112, "mister": 12525, "bruce": 5503, "michelle": 9393, "##harat": 28074, "receptor": 10769, "appalled": 29279, "##cake": 17955, "treaties": 16013, "sui": 24086, "contemporary": 3824, "uber": 19169, "##dham": 17661, "musicals": 20103, "intercourse": 23198, "reluctant": 11542, "forbade": 27315, "gdp": 14230, "mughal": 17877, "parade": 7700, "techno": 21416, "micah": 17665, "nouveau": 25272, "mccall": 25790, "##nne": 10087, "hua": 23064, "bandage": 24446, "##vocation": 19152, "proceed": 10838, "catalan": 13973, "cream": 6949, "papa": 13008, "rattle": 23114, "zee": 23727, "austin": 5899, "420": 17442, "aden": 16298, "preference": 12157, "cheerleading": 25721, "##gen": 6914, "extant": 12905, "employment": 6107, "incidence": 18949, "intently": 16170, "jill": 10454, "50": 2753, "hurdles": 18608, "##\u2078": 30077, "marital": 23143, "minimum": 6263, "##\u10e3": 29990, "hanover": 14393, "stresses": 23253, "embarked": 11299, "##anum": 27975, "heartbreak": 27724, "\u2194": 1587, "spiked": 25362, "mv": 19842, "shadows": 6281, "\u0f51": 1428, "##\u2295": 30139, "\u4e0d": 1744, "genus": 3562, "sis": 24761, "[unused750]": 755, "too": 2205, "erika": 24900, "demi": 27668, "launcher": 22742, "tiberius": 28411, "hospitals": 8323, "blouse": 18149, "disciplines": 12736, "gills": 29468, "drills": 28308, "44th": 26409, "fins": 18564, "reside": 13960, "advocates": 13010, "##\uff09": 30514, "reporter": 6398, "hardin": 27522, "holstein": 18864, "ri": 15544, "##ken": 7520, "stew": 20717, "##verance": 21998, "notorious": 12536, "clarity": 15563, "bolsheviks": 28755, "beth": 7014, "angela": 10413, "meet": 3113, "##bula": 28507, "muffled": 15783, "cotton": 6557, "##ammed": 27479, "##ru": 6820, "##tron": 15312, "##cking": 23177, "##2": 2475, "art": 2396, "[unused491]": 496, "[unused400]": 405, "nobility": 11760, "yeah": 3398, "left": 2187, "rabbis": 25602, "##optera": 25324, "ranges": 8483, "display": 4653, "accumulated": 14830, "##\u2084": 17004, "spat": 14690, "von": 3854, "##\u30ad": 30227, "assessments": 20794, "loch": 14941, "peeking": 28222, "craft": 7477, "hart": 7530, "bites": 15424, "soda": 14904, "tumor": 13656, "declaration": 8170, "airs": 14369, "252": 22898, "collected": 5067, "share": 3745, "##zen": 10431, "wil": 19863, "fewer": 8491, "instant": 7107, "\u0932": 1334, "##etto": 20082, "method": 4118, "ryu": 19367, "believes": 7164, "##ium": 5007, "##ika": 7556, "arc": 8115, "part": 2112, "malvern": 28082, "ideological": 17859, "33rd": 20883, "\u897f": 1947, "##berto": 21201, "elegant": 11552, "hill": 2940, "hugo": 9395, "hushed": 24033, "##ering": 7999, "liable": 20090, "storytelling": 20957, "122": 13092, "intuition": 26406, "eireann": 29157, "caps": 9700, "literary": 4706, "caressing": 25296, "##uch": 10875, "liu": 8607, "[unused204]": 209, "ultrasound": 27312, "##loaded": 17468, "##cous": 27199, "2": 1016, "compartments": 27998, "\u0628": 1271, "pilgrims": 17992, "stationed": 8895, "##vet": 19510, "artwork": 8266, "shirley": 11280, "##hal": 8865, "awkward": 9596, "childhood": 5593, "paradox": 20506, "##pressive": 27484, "[unused523]": 528, "sparkling": 16619, "pieter": 23759, "immortal": 12147, "bernstein": 18862, "##lling": 13112, "##ln": 19666, "\u044e": 1209, "##eers": 22862, "symmetry": 14991, "suicide": 5920, "takeover": 15336, "cactus": 23265, "cree": 27831, "purchases": 17402, "rape": 9040, "##ane": 7231, "corners": 8413, "antoine": 12445, "composure": 23619, "[unused366]": 371, "##oku": 21940, "##mable": 24088, "tricks": 12225, "1788": 15622, "extravagant": 27856, "twinkle": 29038, "irrigation": 12442, "metabolic": 21453, "appalachian": 19682, "##ctor": 16761, "crush": 10188, "##ate": 3686, "##hl": 7317, "frequented": 24832, "practitioners": 14617, "##book": 8654, "##sw": 26760, "jacket": 6598, "met": 2777, "format": 4289, "chat": 11834, "\u20a9": 1573, "##mm": 7382, "\u0ba4": 1385, "##zak": 20685, "greed": 22040, "shoulder": 3244, "[unused578]": 583, "halves": 23672, "sauce": 12901, "ligue": 18374, "maori": 12600, "naples": 10553, "directions": 7826, "shown": 3491, "\u5e74": 1840, "1749": 24704, "wrecked": 18480, "developer": 9722, "##chison": 27795, "welcome": 6160, "##horse": 23024, "evolve": 19852, "occupations": 23374, "junior": 3502, "pathetic": 17203, "logistics": 12708, "scarce": 18782, "crying": 6933, "initially": 3322, "##\"": 29613, "portray": 17279, "##\u056b": 29772, "haven": 4033, "1741": 25280, "tempered": 22148, "##ex": 10288, "castillo": 19371, "counterparts": 14562, "claiming": 6815, "differences": 5966, "staten": 24161, "valkyrie": 26696, "whimpered": 26184, "##ole": 9890, "1754": 22593, "spans": 14798, "owls": 22388, "current": 2783, "platoon": 13799, "coiled": 24599, "champions": 3966, "belt": 5583, "##gp": 21600, "harden": 28751, "jars": 25067, "padres": 21577, "prentice": 23429, "distinctions": 25995, "grounds": 5286, "beaches": 12212, "##dot": 27364, "invitation": 8468, "##\u56d7": 30323, "##lde": 17920, "floats": 24885, "##lon": 7811, "albuquerque": 19334, "oblast": 10379, "\u20b9": 1576, "filming": 7467, "##lary": 28221, "tod": 28681, "waterfront": 16317, "crises": 25332, "colombia": 7379, "kay": 10905, "shared": 4207, "2a": 23409, "##rion": 14772, "[unused674]": 679, "lieutenant": 3812, "bethlehem": 19360, "##\u3072": 30199, "detail": 6987, "williamsburg": 26366, "casualty": 19844, "geographic": 9183, "camps": 7958, "uninhabited": 24749, "save": 3828, "salvador": 10582, "##joy": 24793, "##\u1d35": 30029, "accelerating": 29494, "##\uff0e": 30517, "murderers": 28882, "raise": 5333, "##tler": 25091, "berkeley": 8256, "lighthouse": 10171, "[unused464]": 469, "distracting": 25012, "raising": 6274, "##ibility": 13464, "58": 5388, "##rting": 24097, "sy": 25353, "##eki": 26576, "par": 11968, "\u10d9": 1446, "mir": 14719, "##ough": 10593, "referenced": 14964, "##neo": 23585, "sands": 13457, "moderator": 29420, "[": 1031, "1664": 28485, "##\u201a": 30057, "##kins": 14322, "ballad": 11571, "interacting": 21935, "parameters": 11709, "nonstop": 25493, "##oud": 19224, "boys": 3337, "shark": 11420, "##oes": 22504, "whatever": 3649, "estimates": 10035, "zeta": 23870, "mythological": 21637, "greasy": 26484, "fell": 3062, "marge": 25532, "opened": 2441, "firmly": 7933, "ezekiel": 28743, "usc": 15529, "mill": 4971, "havre": 28890, "victory": 3377, "hideous": 22293, "aldo": 28163, "area": 2181, "polytechnic": 14466, "groove": 14100, "lured": 26673, "specials": 19247, "[unused599]": 604, "##metric": 12589, "caucasian": 23368, "disrupt": 23217, "laws": 4277, "##\u2ea9": 30158, "apollo": 9348, "##\u1169": 30011, "##bid": 17062, "weakening": 22031, "upbringing": 24615, "##iest": 10458, "rutgers": 18607, "yanked": 10963, "##\u4e8c": 30278, "last": 2197, "ecology": 13517, "constant": 5377, "figured": 6618, "assign": 23911, "juventus": 22760, "carpenter": 10533, "##fu": 11263, "senses": 9456, "obscured": 23649, "##rera": 24068, "dissolve": 21969, "##vial": 18660, "carl": 5529, "##gpur": 25758, "foolish": 13219, "hostile": 10420, "ceased": 7024, "\u00a3100": 27708, "longing": 15752, "reduces": 13416, "cruel": 10311, "activation": 13791, "\u30df": 1724, "guarantees": 21586, "peabody": 20004, "nicaragua": 15448, "##iri": 15735, "##yde": 18124, "70th": 26934, "solitary": 14348, "##\u06af": 29842, "bullet": 7960, "decks": 19963, "branches": 5628, "garage": 7381, "layers": 9014, "\u0e17": 1412, "collapses": 25938, "regulatory": 10738, "knife": 5442, "technological": 10660, "speeds": 10898, "somber": 28587, "##34": 22022, "1850s": 16488, "##hur": 24572, "influences": 8092, "tha": 22794, "deteriorated": 20111, "##\u6d77": 30428, "evolutionary": 12761, "survive": 5788, "bucharest": 14261, "unemployed": 18787, "[unused558]": 563, "##\u795e": 30451, "temperature": 4860, "med": 19960, "##phate": 24556, "spanish": 3009, "tres": 24403, "##\u05d4": 29128, "removing": 9268, "##trix": 29184, "researching": 20059, "sick": 5305, "stadion": 20756, "##\u0939": 29875, "body": 2303, "khmer": 19472, "powerful": 3928, "subjected": 13532, "\u0926": 1325, "padua": 24941, "prey": 8336, "rand": 14566, "distraught": 25348, "ion": 10163, "normally": 5373, "compelling": 17075, "##ogist": 22522, "##sberg": 11711, "1540": 27536, "\u5fc3": 1849, "signs": 5751, "550": 13274, "desire": 4792, "105": 8746, "mauritius": 18004, "thrill": 16959, "##vere": 28943, "extinguished": 27705, "silvery": 21666, "foundry": 19853, "preach": 25250, "[unused258]": 263, "aquino": 24183, "ahl": 18347, "notified": 19488, "tour": 2778, "undergraduate": 8324, "wrong": 3308, "start": 2707, "baritone": 14458, "telenovela": 25754, "ceiling": 5894, "emily": 6253, "##lein": 19856, "bruised": 18618, "exploring": 11131, "bloomfield": 25584, "describes": 5577, "\u56fd": 1799, "##onda": 29067, "safely": 9689, "##eased": 25063, "sustained": 8760, "cheyenne": 17778, "##hampton": 21946, "punjabi": 17498, "traces": 10279, "[unused305]": 310, "lend": 18496, "##ina": 3981, "##mmy": 18879, "troop": 10123, "##stead": 25647, "\u6c37": 1895, "drainage": 11987, "ku": 13970, "tor": 17153, "[unused360]": 365, "##raz": 20409, "\u90e8": 1960, "carter": 5708, "\u0250": 1109, "1880s": 12751, "manipulated": 20063, "fading": 14059, "vo": 29536, "hesitated": 9369, "wells": 7051, "there": 2045, "[unused694]": 699, "abdomen": 13878, "epa": 19044, "pere": 23976, "pretoria": 25366, "sucker": 26476, "canceled": 13261, "##bilities": 14680, "ecosystem": 16927, "##ores": 16610, "doctrines": 23252, "##iano": 15668, "##load": 11066, "##hey": 14844, "office": 2436, "brien": 9848, "##elling": 23918, "disturbing": 14888, "hiring": 14763, "lombard": 23441, "##\u0f54": 29966, "##\u0446": 29751, "cite": 21893, "drown": 19549, "##cana": 28621, "##otti": 21325, "[unused702]": 707, "anthropology": 12795, "jesuits": 20297, "kitchen": 3829, "frowning": 14587, "wharton": 24249, "coleman": 11608, "determination": 9128, "slab": 17584, "atkinson": 18646, "spring": 3500, "modernization": 20181, "mating": 15100, "[unused555]": 560, "placed": 2872, "\u0574": 1229, "capturing": 11847, "##\u09b2": 29909, "##arians": 28369, "##ckle": 19250, "previous": 3025, "patsy": 25382, "vickers": 18571, "bumper": 21519, "immigration": 7521, "hazard": 15559, "misses": 22182, "##thal": 24090, "##\u3053": 30181, "evidenced": 21328, "kyle": 7648, "galician": 28830, "flushed": 12953, "chewing": 17492, "cosmopolitan": 24686, "aimed": 6461, "process": 2832, "sparse": 20288, "broke": 3631, "standardized": 16367, "##cene": 17968, "fia": 19807, "##gren": 13565, "syndicated": 13889, "##red": 5596, "portraying": 17274, "##ffle": 18142, "corrected": 13371, "chunk": 20000, "enamel": 29484, "objects": 5200, "dryly": 20825, "possessed": 8679, "dew": 24903, "calderon": 28129, "looking": 2559, "injunction": 22928, "remembered": 4622, "1745": 21809, "vow": 19076, "died": 2351, "ethernet": 26110, "jerking": 22387, "continually": 14678, "\u00b2": 1082, "##olis": 20872, "##y": 2100, "##\u2212": 22543, "##tort": 25485, "pulsed": 24107, "##eras": 24140, "1798": 13036, "morphological": 24012, "lobbied": 26421, "plagued": 17808, "##hema": 28433, "young": 2402, "donations": 11440, "geelong": 18664, "kane": 8472, "sutra": 26567, "constitutional": 6543, "##graph": 14413, "vietnamese": 9101, "drain": 12475, "dvds": 22477, "##yoshi": 19196, "lund": 21860, "mountains": 4020, "spherical": 18970, "goldstein": 25507, "gan": 25957, "exterior": 8829, "salem": 10389, "wasting": 18313, "host": 3677, "calming": 23674, "1858": 8517, "claremont": 23716, "varied": 9426, "nairobi": 21124, "requests": 11186, "asserted": 13647, "certified": 7378, "hooded": 21592, "robots": 13507, "##\u5317": 30307, "tibetan": 11953, "\u8a9e": 1950, "functioning": 12285, "##world": 11108, "butter": 12136, "\uff0f": 1992, "originates": 16896, "magnetic": 8060, "lair": 21039, "##nator": 27413, "jr": 3781, "##\u300f": 30170, "greedy": 20505, "vaudeville": 19698, "cbs": 6568, "fierce": 9205, "cadence": 23620, "procession": 14385, "\u05e0": 1257, "mahmoud": 27278, "feminine": 12320, "fantasia": 29203, "wear": 4929, "##kled": 19859, "creatures": 7329, "\u043e": 1193, "bravery": 16534, "##\u5149": 30296, "##45": 19961, "##oli": 10893, "\u11a8": 1484, "gps": 14658, "1934": 4579, "graduates": 10845, "p": 1052, "girlfriends": 27408, "councillors": 13189, "yamaha": 24031, "widespread": 6923, "050": 28714, "##bra": 10024, "##isa": 14268, "routes": 5847, "surrendered": 10795, "[unused422]": 427, "encouraged": 6628, "sparks": 12300, "utter": 14395, "succumbed": 25642, "\u56d7": 1797, "##ination": 12758, "charismatic": 23916, "anarchist": 18448, "barbarian": 25075, "\u10d7": 1444, "stimulation": 20858, "circling": 18519, "examined": 8920, "jacksonville": 13057, "mckenzie": 18506, "reacher": 22970, "stake": 8406, "[unused734]": 739, "subsidies": 21762, "dramatically": 12099, "wished": 6257, "1600": 14883, "r": 1054, "##olved": 16116, "massimo": 28080, "banking": 8169, "peyton": 17931, "1823": 12522, "proficient": 27029, "strewn": 25259, "decorated": 7429, "suits": 11072, "elementary": 4732, "smelled": 9557, "##nitz": 22792, "viz": 26619, "urge": 9075, "##uted": 12926, "mind": 2568, "guangdong": 21287, "cousins": 12334, "elections": 3864, "facts": 8866, "##stone": 9221, "\u203a": 1533, "legislatures": 27977, "tits": 25671, "johnny": 5206, "##linson": 25051, "believed": 3373, "elizabeth": 3870, "semiconductor": 20681, "absorb": 16888, "1635": 27426, "respective": 7972, "debbie": 16391, "terre": 25170, "hires": 28208, "yield": 10750, "ge": 16216, "lowlands": 26411, "producers": 6443, "##\u025b": 29275, "anglo": 7819, "rpg": 22531, "[unused482]": 487, "keen": 10326, "classroom": 9823, "mothers": 10756, "##nka": 25804, "halo": 17201, "[unused420]": 425, "\u0928": 1327, "selective": 13228, "biblical": 10213, "##kovich": 28195, "gunnar": 26138, "admitting": 17927, "patrice": 29527, "339": 28977, "piled": 17835, "seals": 13945, "website": 4037, "seat": 2835, "mars": 7733, "sunday": 4465, "[unused944]": 949, "survivors": 8643, "fights": 9590, "ptolemy": 23517, "\u5b89": 1820, "##\u77f3": 30448, "escaping": 13002, "acquired": 3734, "##sop": 28793, "cheltenham": 18763, "excess": 9987, "tinted": 25577, "##oic": 19419, "stations": 3703, "robbie": 12289, "bishopric": 20664, "[unused579]": 584, "intentional": 21249, "modify": 19933, "label": 3830, "wrestle": 25579, "\u209c": 1571, "##pie": 14756, "##rium": 18802, "##hner": 28989, "hispanic": 6696, "##chester": 25322, "dome": 8514, "informs": 15670, "siegfried": 25948, "aired": 4836, "optimal": 15502, "armed": 4273, "kv": 24888, "superiors": 22983, "leland": 27134, "missouri": 5284, "##tv": 9189, "expresses": 16783, "##planes": 26634, "mala": 28935, "believers": 20373, "sculptor": 10160, "##ire": 7442, "owe": 12533, "##iface": 29164, "[unused3]": 4, "modeling": 11643, "[unused764]": 769, "##git": 23806, "uptown": 28539, "hastings": 12296, "##\u4e94": 30279, "bulgarian": 7643, "inference": 28937, "286": 24921, "\u11ab": 1485, "##uate": 20598, "maccabi": 24055, "pauline": 15595, "humane": 23369, "sesame": 23605, "peach": 18237, "comedian": 9971, "shiver": 13277, "este": 28517, "co": 2522, "[unused565]": 570, "silk": 6953, "gram": 13250, "[unused473]": 478, "##bridge": 6374, "donetsk": 29151, "incline": 27461, "statistical": 7778, "##\u53e3": 30314, "##\u2122": 30108, "##<": 29629, "observed": 5159, "\u00a6": 1072, "te": 8915, "reconstruction": 8735, "timed": 22313, "smallpox": 25765, "predicting": 29458, "copies": 4809, "##tom": 20389, "ill": 5665, "counterpart": 13637, "\u3080": 1679, "geo": 20248, "##ete": 12870, "shall": 4618, "##tch": 10649, "\u6b66": 1889, "during": 2076, "##tell": 23567, "olivier": 14439, "nodded": 3368, "finely": 22126, "1759": 21667, "##scopic": 24895, "basketball": 3455, "bonuses": 29563, "densely": 19441, "frankish": 26165, "317": 26628, "##shire": 7430, "grading": 26886, "blocked": 8534, "frazier": 26551, "wasps": 23146, "celebrating": 12964, "##\u308a": 30212, "demonstrations": 13616, "gaddafi": 28924, "hans": 7003, "revolution": 4329, "fishes": 21995, "##erving": 25164, "##nd": 4859, "\u221e": 1601, "##lty": 24228, "obtaining": 11381, "tombstone": 26671, "abraham": 8181, "invented": 8826, "\u1162": 1471, "regularly": 5570, "wb": 25610, "[unused485]": 490, "##iji": 27821, "36": 4029, "feeling": 3110, "##uer": 13094, "partially": 6822, "##\u03b9\u03b1": 27432, "hawaiian": 12188, "mouth": 2677, "write": 4339, "dominance": 13811, "modernist": 19770, "8th": 5893, "brandt": 19407, "indictment": 24265, "fantasy": 5913, "##vron": 28588, "underside": 17313, "visitation": 28877, "yard": 4220, "##\u3046": 30174, "173": 19410, "meals": 12278, "490": 22288, "##town": 4665, "##isance": 28138, "240": 11212, "neumann": 22860, "capitalism": 16498, "khalid": 21828, "upgraded": 9725, "\u03b9": 1163, "1666": 27407, "riverside": 12497, "mafia": 13897, "offender": 25042, "anytime": 15933, "spelling": 11379, "savior": 24859, "guinness": 17323, "##ser": 8043, "portrayal": 13954, "butterflies": 15023, "##cin": 15459, "##uting": 20807, "bracelet": 19688, "arrange": 13621, "##dion": 29573, "granddaughter": 12787, "ammonia": 25874, "##flight": 28968, "##koff": 26126, "warwick": 13283, "age": 2287, "norm": 13373, "##chemical": 15869, "charters": 23010, "mabel": 19486, "##\u0f62": 29970, "##avia": 15164, "violated": 14424, "forms": 3596, "abundant": 12990, "contexts": 18046, "notwithstanding": 26206, "##\u044f": 17432, "saturn": 14784, "payroll": 26854, "##fleet": 27657, "narrows": 25142, "reissue": 17173, "intervention": 8830, "[unused384]": 389, "reigned": 21236, "future": 2925, "\u3053": 1655, "##deck": 26547, "configuration": 9563, "greet": 17021, "ineligible": 22023, "nobleman": 18487, "##\u52a0": 30305, "objection": 22224, "gratitude": 15531, "undefeated": 15188, "infringement": 20701, "cosmetics": 25381, "which": 2029, "roads": 4925, "tied": 5079, "slower": 12430, "sunset": 10434, "##uven": 27346, "priscilla": 25193, "stink": 27136, "striking": 8478, "##turn": 22299, "zoning": 27462, "suggested": 4081, "##tering": 17989, "##nal": 12032, "##gram": 13113, "stabbed": 13263, "##\u0584": 29786, "fiber": 11917, "pen": 7279, "feet": 2519, "breaks": 7807, "[unused32]": 33, "generals": 11593, "hierarchical": 25835, "gospel": 8036, "[unused180]": 185, "handing": 13041, "hiding": 6318, "frown": 11330, "jesse": 7627, "relics": 16712, "severn": 24753, "knows": 4282, "fixing": 15887, "idol": 10282, "sharp": 4629, "weaker": 15863, "wta": 21925, "##bol": 14956, "wishes": 8996, "ballet": 7250, "##chee": 25923, "\u0280": 1127, "currie": 20667, "prestige": 14653, "evergreen": 16899, "##yn": 6038, "jiangsu": 28091, "steal": 8954, "poverty": 5635, "glasses": 7877, "fontaine": 25749, "##han": 4819, "mustered": 21900, "guide": 5009, "ripple": 24644, "##\u0250": 29676, "##\u660e": 30391, "collaborate": 20880, "quezon": 26564, "philippe": 11169, "belmont": 17449, "[unused724]": 729, "organ": 5812, "stricken": 16654, "stamp": 11359, "##kot": 23342, "[unused893]": 898, "artists": 3324, "##py": 7685, "castes": 26254, "apostles": 19178, "flux": 19251, "arise": 13368, "\u5357": 1785, "doorway": 7086, "##iz": 10993, "##lun": 26896, "excuse": 8016, "mendoza": 18021, "horsemen": 25431, "wherever": 11210, "glendale": 27649, "hugh": 6621, "noun": 15156, "glowing": 10156, "##\u10e1": 29988, "soo": 17111, "chinatown": 22321, "tyres": 24656, "##tis": 7315, "princely": 22771, "##ot": 4140, "##\u03c1": 29732, "applicable": 12711, "bangalore": 14022, "late": 2397, "\u3089": 1685, "##outs": 12166, "jd": 26219, "genealogy": 26684, "glucose": 18423, "planners": 27155, "1648": 22533, "##vances": 26711, "[unused658]": 663, "profitable": 15282, "muhammad": 7187, "respiratory": 16464, "1893": 6489, "##\u30e9": 30257, "##fying": 14116, "##promising": 25013, "##ited": 17572, "##\u570b": 30326, "unix": 19998, "possess": 10295, "establishments": 17228, "freshman": 10452, "education": 2495, "fort": 3481, "folly": 26272, "stated": 3090, "northward": 17192, "liszt": 26273, "plotted": 27347, "nightmares": 15446, "manufactures": 22027, "plaster": 15673, "##uni": 19496, "encompass": 25281, "unusually": 12890, "jamie": 6175, "malley": 25271, "##\u9053": 30483, "schumacher": 22253, "##bery": 22509, "shaped": 5044, "quickly": 2855, "##\u72ac": 30434, "##ua": 6692, "protesters": 13337, "note": 3602, "glare": 10982, "@": 1030, "lava": 13697, "##nde": 13629, "platforms": 7248, "tracts": 22069, "distinctive": 8200, "sensual": 18753, "lamp": 10437, "savage": 9576, "learners": 26262, "##uan": 13860, "decision": 3247, "dunlop": 27458, "anticipated": 11436, "##rro": 18933, "gust": 26903, "##grad": 16307, "[unused881]": 886, "adolescence": 29101, "1730": 23272, "poison": 9947, "##text": 18209, "adolescent": 20274, "##\u10dd": 29986, "mosque": 8806, "danger": 5473, "janet": 9965, "[unused580]": 585, "regatta": 26848, "destroyers": 13242, "##rrick": 24999, "sister": 2905, "underneath": 7650, "747": 25374, "##\u099a": 29892, "blade": 6085, "bubbling": 25054, "elmer": 21464, "ropes": 14607, "deliberately": 9969, "##\u8c9d": 30478, "1865": 6725, "ebony": 27680, "marilyn": 14749, "dirt": 6900, "noelle": 22336, "hectare": 20406, "data": 2951, "anybody": 10334, "corrugated": 27186, "\u116a": 1476, "syracuse": 11736, "tuberculosis": 15877, "scattering": 17501, "relinquished": 26566, "metaphor": 19240, "towers": 7626, "chapter": 3127, "##rath": 27362, "unspoken": 25982, "arrived": 3369, "scandal": 9446, "collins": 6868, "designed": 2881, "irritation": 17373, "##ge": 3351, "vc": 18315, "revisions": 24699, "goldsmith": 22389, "219": 20636, "grimace": 25898, "\u5409": 1793, "assume": 7868, "farrell": 16248, "operas": 14281, "##vez": 26132, "##\u05dd": 29800, "pluto": 26930, "rip": 10973, "tho": 27793, "switch": 6942, "afc": 10511, "##erre": 28849, "empowerment": 23011, "early": 2220, "killings": 16431, "theorem": 9872, "admiralty": 14179, "##sable": 19150, "##eger": 26320, "privilege": 14293, "robbers": 28019, "solo": 3948, "lange": 21395, "##sily": 26863, "[unused238]": 243, "montana": 8124, "##\u0279": 29691, "realities": 22213, "authority": 3691, "anaheim": 20835, "222": 19015, "government": 2231, "145": 13741, "1724": 26423, "viewpoint": 21386, "##bana": 19445, "realise": 19148, "stares": 14020, "\u308c": 1688, "unconstitutional": 20454, "##balance": 26657, "chicken": 7975, "ruby": 10090, "##llar": 17305, "##piration": 16781, "notably": 5546, "prominence": 12144, "firearms": 13780, "brig": 16908, "pot": 8962, "lynne": 26938, "burials": 23109, "warn": 11582, "browser": 16602, "foul": 12487, "demonic": 23170, "chiba": 27368, "symphonies": 29355, "confederate": 8055, "dario": 26800, "##bus": 8286, "##ira": 7895, "percentage": 7017, "policing": 21107, "illustrator": 13825, "doctors": 7435, "allan": 8926, "closer": 3553, "cupboard": 25337, "spectator": 21027, "antigua": 26023, "bastards": 21123, "mary": 2984, "##olo": 12898, "corona": 21887, "##ient": 11638, "prevailing": 19283, "renew": 20687, "intel": 13420, "drops": 9010, "neural": 15756, "adopted": 4233, "galway": 14370, "pact": 14790, "gracie": 19005, "_": 1035, "calculated": 10174, "##minster": 24431, "travers": 29053, "transform": 10938, "##ttal": 28200, "wonderful": 6919, "breached": 25769, "sucks": 19237, "sapphire": 21965, "harris": 5671, "essential": 6827, "bombardier": 29143, "wardrobe": 17828, "snail": 10879, "preserves": 18536, "##ains": 28247, "derby": 7350, "##elis": 29282, "1715": 22606, "##nte": 10111, "kyrgyzstan": 23209, "overturned": 17068, "routed": 19578, "whitish": 16800, "winning": 3045, "dorchester": 27252, "[unused387]": 392, "##le": 2571, "##isch": 19946, "primetime": 18474, "engineer": 3992, "hc": 16731, "erasmus": 26809, "hasn": 8440, "planes": 9738, "friedman": 18486, "1929": 4612, "prominent": 4069, "erratic": 24122, "\u30d8": 1721, "clarkson": 18648, "compound": 7328, "choreographer": 17334, "\u25a0": 1617, "looks": 3504, "ontario": 4561, "christmas": 4234, "hash": 23325, "sophie": 8234, "##voking": 22776, "consensus": 10465, "trusting": 19836, "chains": 8859, "senate": 4001, "seldom": 15839, "municipalities": 7602, "##agh": 17988, "##\u4e0a": 30268, "persia": 16667, "portage": 25140, "stabilized": 27697, "undergoing": 14996, "sake": 8739, "location": 3295, "tracker": 27080, "silky": 18848, "##zel": 12638, "internally": 16058, "##yp": 22571, "know": 2113, "swallows": 26436, "acknowledge": 13399, "enough": 2438, "[unused550]": 555, "neutral": 8699, "17th": 5550, "snap": 10245, "unable": 4039, "barrington": 26469, "##ede": 14728, "migrated": 13447, "eun": 26070, "championship": 2528, "1897": 6347, "fired": 5045, "##\u0437": 29744, "adequately": 23613, "1899": 6166, "ts": 24529, "fund": 4636, "masses": 11678, "[unused720]": 725, "musicians": 5389, "prophet": 12168, "titular": 12960, "[unused813]": 818, "declining": 13993, "##rell": 16230, "baseman": 18038, "[unused260]": 265, "messy": 18307, "nanjing": 21455, "##igny": 26978, "malta": 9933, "scenery": 17363, "magical": 8687, "constellation": 15300, "##\u062b": 29818, "colorado": 5169, "##fied": 10451, "taliban": 16597, "1626": 28818, "amounts": 8310, "moi": 25175, "minutes": 2781, "##dance": 25514, "afghanistan": 7041, "##mona": 21781, "\u09a3": 1361, "##loading": 18570, "dorothea": 24052, "madeleine": 19324, "##ught": 18533, "vacation": 10885, "emotions": 6699, "soho": 23771, "degree": 3014, "[unused661]": 666, "ankara": 20312, "\u0641": 1291, "certainty": 15855, "##\u00df": 19310, "##pon": 26029, "\u5b66": 1817, "musically": 21385, "fight": 2954, "##rized": 18425, "ultra": 11087, "##lifting": 26644, "until": 2127, "kidnapped": 11364, "1904": 5692, "chrysler": 17714, "kurdistan": 23627, "mascara": 27700, "shortstop": 25359, "termed": 12061, "ned": 12311, "prototypes": 19599, "commune": 5715, "pay": 3477, "somerville": 27209, "main": 2364, "##\u10db": 29984, "pena": 19409, "imply": 19515, "helplessly": 24942, "regulate": 15176, "##da": 2850, "tribute": 7050, "vampire": 4393, "##ds": 5104, "hypnotic": 28322, "##cd": 19797, "situations": 8146, "grumbled": 17030, "[unused130]": 135, "breakthrough": 12687, "avant": 14815, "1804": 13140, "salute": 17664, "##ease": 19500, "embarrassed": 10339, "##dhi": 19114, "describing": 7851, "##oire": 26250, "cancellation": 16990, "attacking": 7866, "witches": 12566, "##\u1d2e": 30027, "confess": 18766, "cooling": 11520, "canton": 8770, "[unused315]": 320, "##\u05d7": 29794, "guild": 9054, "dessert": 18064, "wesleyan": 19858, "superman": 10646, "card": 4003, "hidden": 5023, "distillery": 24870, "seven": 2698, "defaulted": 17265, "hum": 14910, "polo": 11037, "##\u2085": 30081, "moderate": 8777, "awarding": 21467, "fictional": 7214, "##ith": 8939, "squeezing": 15328, "partnered": 12404, "completely": 3294, "godzilla": 26631, "##cek": 25368, "lazy": 13971, "dealer": 11033, "##tenberg": 21806, "c1": 27723, "finch": 16133, "##oda": 13390, "n": 1050, "jin": 9743, "##12": 12521, "skirt": 9764, "seminole": 28909, "1765": 20797, "church": 2277, "soc": 27084, "horror": 5469, "his": 2010, "overnight": 11585, "liberties": 18271, "pepsi": 27237, "islander": 12544, "mana": 24951, "detailing": 17555, "guessed": 11445, "kansas": 5111, "junta": 22450, "shuddering": 25735, "lancaster": 10237, "criticism": 6256, "##\u00ba": 29662, "grasp": 10616, "singapore": 5264, "owning": 19273, "semantic": 21641, "layout": 9621, "reacts": 27325, "racist": 16939, "casualties": 8664, "##mo": 5302, "basement": 8102, "chromosome": 16706, "initiated": 7531, "barony": 19365, "##tsky": 26824, "troops": 3629, "moe": 22078, "squadrons": 11435, "rallied": 24356, "prosperous": 18241, "liked": 4669, "continuous": 7142, "07": 5718, "concerning": 7175, "gods": 5932, "48th": 27787, "favourable": 18731, "math": 8785, "substantially": 12381, "reliable": 10539, "descended": 9287, "bilingual": 17636, "jimmy": 5261, "oder": 27215, "waves": 5975, "australian": 2827, "reasonably": 16286, "lau": 21360, "landmark": 8637, "foyer": 16683, "d": 1040, "hugging": 17662, "##tched": 28265, "waiting": 3403, "cm": 4642, "##tus": 5809, "alleging": 23294, "2002": 2526, "pure": 5760, "##tto": 9284, "dismiss": 19776, "philadelphia": 4407, "meiji": 23214, "barber": 13362, "educate": 16957, "runways": 24578, "jumps": 14523, "##sol": 19454, "pod": 17491, "[unused845]": 850, "##\u044a": 29755, "staff": 3095, "rr": 25269, "basic": 3937, "mac": 6097, "1806": 12518, "judiciary": 14814, "auditory": 28042, "score": 3556, "bobo": 27418, "##tock": 17406, "\u90fd": 1961, "deluxe": 15203, "incompatible": 25876, "empires": 23560, "fountain": 9545, "\u21a6": 1588, "##ulo": 18845, "balanced": 12042, "possibility": 6061, "karlsruhe": 26660, "##idi": 28173, "lyons": 16642, "\u624b": 1858, "anomaly": 28685, "sediments": 20476, "migration": 9230, "##eron": 26534, "redskins": 17461, "lithuania": 9838, "detective": 6317, "improved": 5301, "described": 2649, "##\u4f1a": 30289, "blink": 12373, "\u03b1": 1155, "groaned": 9655, "[unused586]": 591, "##\u1162": 30007, "semitic": 20604, "fountains": 23497, "\u9762": 1976, "##\u026c": 29687, "[unused151]": 156, "railing": 15747, "kelsey": 21004, "differentiate": 21032, "##ovich": 12303, "devlin": 24389, "slade": 18048, "cale": 21854, "tipperary": 17333, "reilly": 13875, "authentic": 14469, "mendes": 27916, "##holder": 14528, "peoples": 7243, "greenville": 20967, "##acing": 26217, "latham": 28737, "grille": 26192, "consultative": 28581, "stack": 9991, "bop": 29432, "deleted": 17159, "meant": 3214, "creole": 21414, "me": 2033, "memory": 3638, "segment": 6903, "[unused172]": 177, "cutting": 6276, "\u6210": 1854, "[unused342]": 347, "shifter": 18189, "augmented": 19335, "insights": 20062, "fast": 3435, "helix": 25743, "replication": 21647, "influx": 18050, "french": 2413, "##eva": 13331, "macdonald": 10406, "circled": 14867, "knight": 5000, "objectives": 11100, "carmen": 11425, "bamboo": 15216, "clouds": 8044, "prize": 3396, "mls": 16287, "\u03be": 1168, "carpathian": 26349, "joining": 5241, "dwarf": 11229, "lac": 18749, "distinguishing": 20852, "proponents": 20401, "keyboardist": 20173, "##tee": 17389, "murdered": 7129, "rounding": 26939, "robert": 2728, "00pm": 27995, "presiding": 18131, "sponsorship": 12026, "gotta": 10657, "##om": 5358, "arrest": 6545, "faso": 22773, "win": 2663, "brighter": 16176, "solid": 5024, "actively": 8851, "bordering": 18299, "##jali": 28948, "\u11b8": 1488, "advocate": 8175, "bertie": 20743, "##frey": 22586, "moreno": 17921, "tad": 18819, "##thed": 23816, "299": 25926, "##pha": 21890, "\u5408": 1792, "wallet": 15882, "##hope": 26441, "energetic": 18114, "\u305f": 1661, "armand": 20371, "straits": 18849, "swans": 26699, "rectangular": 10806, "unauthorized": 24641, "tran": 25283, "brandy": 17951, "ein": 16417, "##\u5b50": 30342, "cocoa": 22940, "slovak": 12747, "jays": 18930, "variation": 8386, "rhino": 24091, "\u092a": 1328, "hourly": 21462, "tae": 22297, "lakeside": 28701, "ballot": 10428, "travellers": 19284, "##well": 4381, "translit": 28468, "when": 2043, "##wear": 16689, "##eres": 18702, "ripe": 22503, "prohibit": 23469, "ahmedabad": 27249, "demise": 13614, "capital": 3007, "enzo": 26218, "plan": 2933, "##smith": 21405, "attachment": 14449, "\u767d": 1915, "##ssa": 11488, "sk": 15315, "4000": 20143, "##\u5f73": 30371, "##\u3009": 30164, "environmental": 4483, "guidance": 8606, "compiler": 21624, "birthday": 5798, "piedmont": 18873, "councils": 10784, "c": 1039, "easier": 6082, "helm": 16254, "60": 3438, "##bf": 29292, "coe": 24873, "##-": 29624, "alicia": 15935, "##asi": 21369, "supplemental": 27024, "257": 24368, "\u0433": 1183, "arrives": 8480, "grossed": 17500, "dispersed": 15484, "sprinter": 19938, "prep": 17463, "weeks": 3134, "[unused270]": 275, "kapoor": 17129, "bacteria": 10327, "triggered": 13330, "emphasizing": 22671, "donegal": 25415, "slavery": 8864, "##atal": 27815, "bankers": 25375, "surrounds": 20626, "ridge": 5526, "langdon": 15232, "rained": 28270, "identify": 6709, "106": 10114, "iii": 3523, "1st": 3083, "##\u2091": 30090, "wanting": 5782, "kiran": 22403, "modernism": 27254, "##\u02b7": 29709, "bye": 9061, "##economic": 23035, "hating": 22650, "monarchy": 12078, "chickens": 21868, "classifications": 26739, "jaw": 5730, "[unused511]": 516, "boyfriend": 6898, "industrialist": 21691, "vedic": 25824, "kahn": 19361, "twinned": 25901, "laurie": 16450, "fk": 14352, "[unused405]": 410, "\u6cd5": 1901, "##am": 3286, "possessive": 22105, "nagoya": 24425, "##ent": 4765, "[unused16]": 17, "luz": 26214, "##gin": 11528, "magazine": 2932, "extreme": 6034, "critics": 4401, "rv": 27634, "##rba": 28483, "lorenzo": 12484, "physicians": 11572, "ferreira": 26135, "noodles": 27130, "visitors": 5731, "##\u30b7": 30232, "renovations": 15576, "dizzy": 14849, "doe": 18629, "##enes": 28553, "becker": 15309, "beds": 9705, "contributor": 12130, "clemens": 27277, "itunes": 11943, "\u2079": 1543, "fra": 25312, "occupied": 4548, "adjutant": 20690, "##dorf": 11592, "gaius": 19564, "blitz": 22312, "italics": 19408, "appellate": 23240, "nationalism": 14594, "##ington": 7853, "##unds": 26698, "ramsey": 15092, "timeless": 27768, "empress": 10248, "##\u043b": 29436, "extend": 7949, "##rman": 14515, "ears": 5551, "ot": 27178, "42nd": 21373, "joao": 16304, "amenities": 19870, "##\u91cc": 30488, "94": 6365, "slightest": 15989, "catches": 11269, "communion": 15661, "##zar": 9057, "mckay": 16225, "industry": 3068, "berg": 15214, "##ulia": 20922, "inauguration": 17331, "##46": 21472, "fife": 20537, "sweating": 18972, "\ufb02": 1985, "pitching": 14696, "##nage": 27031, "campaigns": 8008, "twice": 3807, "##nable": 22966, "cum": 13988, "231": 20304, "##rah": 10404, "fda": 17473, "begs": 27591, "probe": 15113, "stony": 16104, "[unused126]": 131, "##nington": 23155, "criticizing": 21289, "##tre": 7913, "wendy": 12815, "##bay": 15907, "ashore": 16145, "healed": 15027, "fox": 4419, "##\u00b9": 27904, "saskatchewan": 10068, "progresses": 22901, "##enstein": 21819, "facial": 13268, "cleanup": 27686, "thick": 4317, "1721": 27689, "gt": 14181, "stylized": 19551, "disqualification": 27782, "arcs": 29137, "##ological": 10091, "##sius": 24721, "attendants": 26727, "\u02b7": 1143, "##ifiers": 28295, "##hler": 13620, "##tte": 4674, "alien": 7344, "irritated": 15560, "expert": 6739, "helped": 3271, "sailing": 8354, "36th": 21460, "notes": 3964, "hypothetical": 25613, "sultanate": 21308, "##\u1d63": 30043, "torn": 7950, "unless": 4983, "peacefully": 21614, "farm": 3888, "thee": 14992, "abstraction": 24504, "hahn": 24266, "[unused280]": 285, "berkshire": 15570, "##nish": 24014, "independence": 4336, "salazar": 25315, "utc": 11396, "##rrado": 27933, "revered": 23886, "support": 2490, "sudbury": 26487, "##gley": 22971, "dollar": 7922, "##cina": 28748, "hms": 7220, "\u3084": 1682, "hungary": 5872, "lou": 10223, "15": 2321, "##shan": 9688, "so": 2061, "superhero": 16251, "shah": 7890, "tents": 17732, "\u795e": 1925, "##mbling": 29256, "[unused263]": 268, "week": 2733, "inflated": 29561, "##rave": 22401, "fluids": 20989, "costume": 9427, "wave": 4400, "flag": 5210, "dustin": 24337, "comedies": 22092, "test": 3231, "vic": 10967, "brandon": 8825, "conditioning": 14372, "sleeping": 5777, "township": 3545, "[unused782]": 787, "\u0437": 1187, "cover": 3104, "ignored": 6439, "michele": 15954, "nexus": 26041, "mobility": 12969, "guise": 21980, "##fy": 12031, "stanford": 8422, "laptop": 12191, "humanitarian": 11470, "lectures": 8921, "armistice": 19125, "[unused971]": 976, "spiral": 12313, "470": 21064, "manage": 6133, "##brick": 25646, "keeps": 7906, "os": 9808, "##sser": 18116, "trainee": 26758, "todd": 6927, "referring": 7727, "documents": 5491, "terence": 22677, "cam": 11503, "lillian": 19344, "typically": 4050, "##i": 2072, "scriptures": 22481, "synagogue": 13067, "126": 14010, "pba": 21563, "##eil": 24359, "kaufman": 23699, "##ters": 7747, "pitches": 19299, "importantly": 14780, "##boy": 11097, "##hiro": 18334, "[unused500]": 505, "click": 11562, "hiv": 9820, "want": 2215, "[unused428]": 433, "defensive": 5600, "wealthiest": 27809, "##ista": 11921, "tian": 23401, "curving": 21439, "slapping": 22021, "cambridgeshire": 24197, "grange": 18203, "##\u09a1": 29896, "##aha": 23278, "qin": 19781, "##iro": 9711, "sending": 6016, "brook": 9566, "elsa": 23452, "null": 19701, "selector": 27000, "fellow": 3507, "construct": 9570, "bessie": 29298, "[unused628]": 633, "teammates": 13220, "381": 29335, "hot": 2980, "eyebrow": 9522, "physiology": 16127, "nominated": 4222, "trial": 3979, "viewers": 7193, "jensen": 14857, "ax": 22260, "shone": 14707, "diocesan": 18680, "##\u110f": 30002, "lia": 22393, "parker": 6262, "struck": 4930, "bukit": 29007, "thief": 12383, "##bley": 29538, "##anga": 18222, "##ze": 4371, "\u5289": 1777, "##icative": 25184, "hai": 15030, "portions": 8810, "##dron": 19440, "##jin": 14642, "##erated": 16848, "lucknow": 23571, "mon": 12256, "nepali": 23418, "##ye": 6672, "gender": 5907, "##tein": 9589, "lie": 4682, "sobbing": 20040, "bacon": 11611, "traced": 9551, "confused": 5457, "##cial": 13247, "airspace": 29357, "op": 6728, "kim": 5035, "lissa": 20244, "loosen": 29476, "faerie": 27498, "playstation": 9160, "armour": 12371, "gasps": 23813, "\u0930": 1333, "##imum": 28591, "uphold": 27329, "choking": 18329, "claws": 10702, "retain": 9279, "seton": 28796, "subtle": 11259, "pretty": 3492, "maxim": 20446, "circumstance": 25652, "mission": 3260, "##aan": 14634, "michel": 8709, "snacks": 27962, "bonnet": 24367, "exported": 15612, "richter": 20105, "##utter": 26878, "[unused81]": 82, "##liche": 27412, "reassure": 24647, "##icon": 28524, "archival": 22796, "##mium": 27759, "oboe": 22523, "subdivisions": 22095, "republics": 24822, "jennie": 27557, "submerged": 13563, "##\u56db": 30324, "remodeled": 27170, "##een": 12129, "emphasis": 7902, "##sling": 28886, "##wski": 10344, "consume": 16678, "thwarted": 28409, "mats": 22281, "investigations": 9751, "216": 20294, "apps": 18726, "anchors": 24674, "##for": 29278, "##gy": 6292, "##son": 3385, "mis": 28616, "frustrated": 10206, "on": 2006, "vine": 15351, "##base": 15058, "##ka": 2912, "births": 18250, "phoenix": 6708, "goldman": 17765, "rig": 19838, "instructional": 23219, "precursor": 14988, "superintendent": 9133, "trusted": 9480, "\u2212": 1597, "depict": 17120, "debating": 20767, "##rney": 27114, "yesterday": 7483, "1767": 21502, "##jun": 19792, "shrill": 28349, "stade": 15649, "trail": 4446, "##\u2015": 30053, "\u02b8": 1144, "ratio": 6463, "\u5927": 1810, "##mous": 27711, "board": 2604, "365": 19342, "mentioning": 18625, "tails": 17448, "##ism": 2964, "styx": 21856, "[unused42]": 43, "nord": 13926, "##yal": 21095, "propulsion": 16404, "lenin": 17497, "##cor": 27108, "sadly": 13718, "apartheid": 17862, "##pheus": 22809, "aimee": 23551, "\u2095": 1564, "constabulary": 23791, "retreated": 11672, "##dora": 24562, "altered": 8776, "nicholson": 16955, "slits": 29199, "bean": 14068, "##lby": 14510, "bounce": 17523, "apron": 20376, "1750": 18171, "##\u82b1": 30466, "henri": 8863, "trinidad": 11856, "startled": 9696, "discount": 19575, "recipients": 15991, "2d": 14134, "muscles": 6650, "1753": 23810, "##tius": 22638, "[unused873]": 878, "ich": 22564, "semifinals": 8565, "\u091a": 1318, "1702": 26776, "tenure": 7470, "deciding": 10561, "sabha": 11200, "alderman": 18977, "cameron": 7232, "higher": 3020, "##laya": 22923, "suggestion": 10293, "##a": 2050, "roche": 20162, "##olin": 18861, "wax": 13844, "\u028e": 1135, "##gating": 16961, "upstairs": 8721, "attacked": 4457, "pri": 26927, "comune": 21130, "optics": 21026, "##zell": 24085, "k": 1047, "ticked": 26019, "dahl": 27934, "progressing": 27673, "somme": 25158, "[unused622]": 627, "university": 2118, "bohemia": 16799, "ensure": 5676, "875": 27658, "kicker": 22652, "averages": 20185, "melville": 20154, "[unused427]": 432, "authenticity": 21452, "lionel": 14377, "tempted": 16312, "braden": 27232, "wakes": 17507, "aqua": 28319, "bryson": 26845, "530": 23523, "##kar": 6673, "zeppelin": 22116, "bonded": 20886, "trading": 6202, "wonderland": 20365, "##vik": 13309, "algiers": 22947, "##rsk": 27472, "\u0447": 1202, "sadie": 21330, "hierarchy": 12571, "obvious": 5793, "waving": 12015, "sizable": 25908, "theologians": 29013, "coincidence": 16507, "breathless": 16701, "supply": 4425, "computation": 22334, "##\u0438": 10325, "orchestras": 19505, "##ceae": 9071, "macedonia": 11492, "forget": 5293, "[unused853]": 858, "bellamy": 25544, "##chy": 11714, "brisbane": 7717, "snatch": 23365, "##hang": 18003, "team": 2136, "[unused590]": 595, "##ication": 21261, "raining": 24057, "subscribers": 17073, "failures": 15428, "##wny": 22251, "emir": 23434, "ochreous": 23474, "insane": 9577, "killing": 4288, "##ld": 6392, "income": 3318, "waterways": 21938, "750": 9683, "##otto": 23052, "frantically": 16460, "discharged": 14374, "potomac": 18854, "xiang": 27735, "##mie": 9856, "represents": 5836, "##ricted": 20623, "producing": 5155, "wolverhampton": 20085, "posthumous": 19086, "##illa": 9386, "##cite": 17847, "magistrates": 23007, "idea": 2801, "teatro": 16038, "overall": 3452, "imperialism": 28087, "surgery": 5970, "diplomat": 11125, "##\u30ea": 30258, "##rigues": 22934, "##pling": 14353, "##hole": 11484, "lure": 17256, "##dication": 25027, "hungarian": 5588, "maternity": 23676, "businesses": 5661, "terry": 6609, "captures": 19566, "##llon": 22179, "2006": 2294, "190": 11827, "##bine": 16765, "email": 10373, "perceptions": 23271, "kilometer": 20595, "muslim": 5152, "##ulla": 22187, "fjord": 26158, "##pa": 4502, "directed": 2856, "fucking": 8239, "...": 2133, "porto": 13809, "directors": 5501, "resulted": 4504, "prisoners": 5895, "accompany": 12673, "outside": 2648, "logic": 7961, "politically": 10317, "decrease": 9885, "##grants": 27444, "##26": 23833, "##lland": 26087, "savoy": 16394, "storylines": 22628, "assured": 8916, "ahmad": 10781, "leeds": 7873, "1867": 7517, "kinetic": 20504, "mused": 22335, "denis": 11064, "spokane": 21878, "[unused866]": 871, "ranging": 7478, "##ren": 7389, "meritorious": 22053, "proving": 13946, "trojan": 23445, "blinds": 28279, "width": 9381, "[unused698]": 703, "inched": 25330, "impressions": 19221, "patton": 18090, "barracks": 10492, "##vus": 27500, "##\u30a7": 30223, "##\u0932": 29870, "avalon": 18973, "##nar": 11802, "loaded": 8209, "rides": 12271, "disco": 12532, "raises": 13275, "##dara": 25329, "pierre": 5578, "##a1": 27717, "outta": 24955, "\u00fe": 1101, "marathi": 18388, "maxwell": 10691, "outlaw": 19104, "##\u653f": 30386, "##saka": 29289, "header": 20346, "tonight": 3892, "again": 2153, "powerhouse": 24006, "harpsichord": 26504, "against": 2114, "##ude": 12672, "schooling": 14118, "rouge": 12801, "suit": 4848, "hendrix": 20645, "tentative": 19943, "[unused844]": 849, "does": 2515, "pembroke": 21457, "valentine": 10113, "beech": 21760, "kei": 26679, "303": 19988, "vigorous": 21813, "hindwings": 15998, "##tzer": 29546, "tehsil": 20751, "taft": 19911, "economists": 22171, "##amo": 22591, "nu": 16371, "##nc": 12273, "1953": 4052, "##ding": 4667, "palais": 22113, "windmill": 25367, "##iting": 15402, "scenic": 12916, "##\u0bb0": 29927, "antoinette": 28429, "modular": 19160, "doll": 10658, "sticky": 15875, "andreas": 12460, "eine": 27665, "plus": 4606, "activate": 20544, "nylon": 27201, "##\u05d3": 29791, "##\u0630": 29822, "signifies": 27353, "##sat": 16846, "suzanne": 15146, "pounds": 7038, "tequila": 26791, "cinderella": 21686, "discovers": 9418, "madison": 7063, "syrup": 23353, "navy": 3212, "wizards": 16657, "seemingly": 9428, "bled": 23919, "nerve": 9113, "##pw": 28400, "1621": 27037, "broadway": 5934, "##\u207a": 12744, "murderous": 25303, "##cend": 23865, "##sca": 15782, "originals": 23728, "shooters": 28310, "660": 20982, "##\u0e01": 29945, "sonny": 13584, "##urne": 21737, "wai": 23701, "bois": 19651, "lesson": 10800, "national": 2120, "hartford": 13381, "cs": 20116, "wildlife": 6870, "##ging": 4726, "devin": 23601, "[unused870]": 875, "bobby": 6173, "##ima": 9581, "##meter": 22828, "stair": 23788, "reverse": 7901, "##tam": 15464, "##riety": 27840, "comfort": 7216, "##\u7701": 30446, "cameroon": 13841, "max": 4098, "johnston": 10773, "[unused589]": 594, "smiles": 8451, "window": 3332, "grinned": 6973, "##inn": 23111, "##lio": 12798, "##ignment": 24838, "enlisted": 9417, "cyclists": 21912, "fairbanks": 24502, "davey": 20436, "yugoslav": 12292, "tatiana": 22725, "chimed": 27460, "collin": 22180, "academic": 3834, "newbury": 29457, "rule": 3627, "commuter": 14334, "\u0925": 1324, "watford": 21740, "[unused411]": 416, "sponsored": 6485, "##hosh": 26643, "dominant": 7444, "tiled": 26510, "yo": 10930, "##ener": 24454, "wigan": 15598, "recognition": 5038, "bend": 8815, "vol": 5285, "beckett": 20599, "clicking": 22042, "vivid": 14954, "most": 2087, "buddhist": 7992, "\u2082": 1549, "[unused980]": 985, "blur": 14819, "emptied": 21764, "mavericks": 28330, "\u0679": 1301, "##nivorous": 29193, "aliens": 12114, "[unused76]": 77, "pages": 5530, "functions": 4972, "1723": 26621, "normandy": 13298, "damon": 11317, "amara": 28599, "flies": 10029, "\u0b95": 1382, "sbs": 21342, "fright": 25966, "electron": 10496, "##unda": 18426, "##tea": 27058, "1970s": 3955, "inevitably": 21268, "##fo": 14876, "##ovic": 9142, "1983": 3172, "alongside": 4077, "prussia": 10724, "andre": 7213, "##born": 10280, "crank": 27987, "literacy": 8433, "[unused78]": 79, "[unused285]": 290, "opposite": 4500, "[unused22]": 23, "monsoon": 19183, "oaxaca": 26923, "goodbye": 9119, "contracts": 8311, "organizations": 4411, "accuracy": 10640, "umbrella": 12977, "##ances": 26755, "joint": 4101, "revived": 10570, "##58": 27814, "skirts": 18184, "gravitational": 19790, "ransom": 16540, "designer": 5859, "##copic": 26461, "##ural": 11137, "##ct": 6593, "regimes": 25228, "hitch": 27738, "fisherman": 19949, "observations": 9420, "surely": 7543, "dfb": 28894, "image": 3746, "attained": 12754, "patriarch": 12626, "##unce": 17457, "whitehead": 23257, "formally": 6246, "##hat": 12707, "jewel": 13713, "\u4ee3": 1760, "nick": 4172, "ponytail": 18865, "\u0935": 1335, "##acker": 25418, "jimi": 27624, "mapping": 12375, "daggers": 24210, "##orough": 26388, "##riding": 21930, "multitude": 20889, "insisted": 7278, "##yler": 20853, "assertion": 23617, "[unused657]": 662, "torque": 15894, "pass": 3413, "battalion": 4123, "jess": 12245, "245": 21005, "compliment": 19394, "conservative": 4603, "planner": 24555, "vocals": 2955, "johann": 8968, "\u043b": 1190, "hicks": 17221, "control": 2491, "tnt": 24048, "amendments": 16051, "\u1110": 1467, "map": 4949, "worthy": 11007, "catch": 4608, "orders": 4449, "dharma": 20669, "##\u304b": 30177, "laced": 17958, "ads": 14997, "botanist": 17098, "hopeful": 17772, "##\u2013": 30051, "##game": 16650, "irritating": 29348, "assassin": 12025, "wake": 5256, "decreases": 17913, "\u1d50": 1502, "czechoslovak": 21282, "distributors": 22495, "hoping": 5327, "lanterns": 26078, "##cliff": 27580, "bags": 8641, "seductive": 23182, "odd": 5976, "##verse": 16070, "cut": 3013, "maturity": 16736, "\u30a7": 1697, "##\u00dfe": 17499, "##itarian": 25691, "##uve": 22909, "godfather": 23834, "##uh": 27225, "humboldt": 19249, "experiences": 6322, "events": 2824, "formed": 2719, "transitional": 17459, "##itung": 28813, "milk": 6501, "\u03c0": 1170, "1908": 5316, "became": 2150, "mainstream": 7731, "##bh": 23706, "slammed": 7549, "##ulum": 25100, "aztec": 25245, "static": 10763, "shudder": 18261, "momentary": 29089, "murmured": 7152, "pol": 14955, "winds": 7266, "falcons": 14929, "reggie": 17963, "##iens": 24836, "filthy": 18294, "##oids": 17086, "[unused292]": 297, "ems": 29031, "brett": 12049, "ready": 3201, "warehouses": 23319, "##reate": 29313, "carson": 9806, "##ntal": 15758, "##vor": 14550, "ramps": 24943, "salzburg": 18369, "buckley": 17898, "##eld": 14273, "##buch": 25987, "concentration": 6693, "frowned": 7335, "mor": 22822, "drawn": 4567, "52nd": 26898, "walter": 4787, "brush": 8248, "collecting": 9334, "##rov": 12298, "daryl": 22514, "##encia": 27742, "##dened": 24589, "bellowed": 27386, "approx": 22480, "characteristics": 6459, "world": 2088, "cathy": 18305, "##ove": 21818, "##uchi": 15217, "guess": 3984, "rocker": 24779, "attendant": 16742, "sven": 21313, "hammered": 25756, "owed": 12232, "crust": 19116, "bourne": 15803, "##rites": 28884, "platinum": 8899, "lisbon": 11929, "##sack": 25607, "longtime": 11155, "broadcasting": 5062, "[unused104]": 109, "preaching": 17979, "clinton": 7207, "##pen": 11837, "1883": 7257, "pleasures": 26552, "##church": 22743, "ua": 25423, "mammoth": 23714, "beautiful": 3376, "##wal": 13476, "##\u0627": 25573, "##\u0153": 29674, "lal": 21348, "lattice": 17779, "saloon": 17078, "warmed": 17336, "##ux": 5602, "32nd": 20628, "##rar": 19848, "forever": 5091, "dunn": 14145, "##cht": 10143, "terrorist": 9452, "coinage": 25396, "teeth": 4091, "wing": 3358, "curious": 8025, "starving": 18025, "walked": 2939, "ta": 11937, "cylindrical": 18797, "\u307f": 1678, "##mind": 23356, "bf": 28939, "cameo": 12081, "sponsoring": 29396, "belarus": 12545, "photographer": 8088, "impossible": 5263, "stream": 5460, "##rre": 14343, "suffolk": 12291, "mohamed": 14467, "##su": 6342, "annabelle": 24722, "##\u0935": 29871, "##3d": 29097, "[unused769]": 774, "lodge": 7410, "useful": 6179, "puddle": 25081, "molina": 25601, "263": 25246, "brown": 2829, "dynasty": 5321, "shutting": 17521, "duplicate": 24473, "infrastructure": 6502, "magnificent": 12047, "input": 7953, "renovation": 10525, "##bling": 9709, "handle": 5047, "\u85e4": 1944, "dioceses": 26586, "occupying": 13992, "telling": 4129, "scripts": 14546, "##rno": 19139, "helps": 7126, "associate": 5482, "replaced": 2999, "##itated": 15198, "thumping": 25996, "individually": 14258, "\uff0c": 1989, "fries": 22201, "seemed": 2790, "expects": 24273, "seems": 3849, "1755": 21417, "##bre": 13578, "barlow": 17803, "chill": 10720, "freezing": 12809, "##one": 5643, "signalling": 21919, "halt": 9190, "\u0638": 1287, "cheap": 10036, "vladimir": 8748, "fills": 17469, "fitting": 11414, "##torm": 20654, "sudanese": 25603, "intervened": 21116, "mornings": 16956, "##quay": 25575, "sutton": 11175, "headmaster": 16296, "##able": 3085, "1891": 6607, "jong": 18528, "android": 11924, "pumps": 15856, "sequel": 8297, "photon": 26383, "plans": 3488, "dodd": 21258, "approaching": 8455, "adele": 17623, "steamer": 18027, "forewings": 13211, "##lton": 13947, "##md": 26876, "chinese": 2822, "livingston": 14109, "benin": 21164, "rubin": 20524, "chorus": 7165, "##cted": 10985, "collarbone": 29600, "stopped": 3030, "[unused778]": 783, "##\u79c0": 30454, "amazement": 21606, "##oned": 17799, "[unused706]": 711, "explicitly": 12045, "casimir": 24701, "stephanie": 11496, "craved": 25155, "utilizes": 21852, "fi": 10882, "smartphone": 26381, "mandarin": 15831, "##\u03b5": 29723, "##lase": 25002, "sketch": 11080, "shay": 18789, "josephine": 16117, "epithet": 19626, "novo": 24576, "[unused840]": 845, "startling": 19828, "kata": 29354, "##anu": 24076, "[unused745]": 750, "temple": 3379, "feathers": 12261, "blackwell": 18776, "vh1": 26365, "flowing": 8577, "testament": 9025, "##usia": 24118, "caravan": 17184, "versailles": 18346, "concentrations": 14061, "malaysia": 6027, "repository": 22409, "luftwaffe": 17740, "71": 6390, "gustave": 27973, "sofie": 26359, "rhone": 22351, "preferences": 18394, "battery": 6046, "##bius": 17028, "ratings": 8599, "casper": 24602, "persecuted": 27666, "stride": 18045, "milano": 21613, "chaos": 8488, "wei": 11417, "thorne": 14296, "wellness": 25860, "reservoir": 8071, "later": 2101, "\u00bc": 1091, "appearance": 3311, "ebert": 22660, "##nac": 18357, "56th": 29087, "bwv": 23860, "tori": 23413, "atop": 10234, "robe": 11111, "riga": 17557, "mckinley": 22121, "##till": 28345, "bart": 12075, "\u91ce": 1963, "102": 9402, "raju": 25098, "defences": 16828, "mundo": 25989, "criminal": 4735, "revenues": 12594, "puerto": 5984, "sheep": 8351, "unofficial": 11982, "cherry": 9115, "treaty": 5036, "ivory": 11554, "sped": 16887, "jerry": 6128, "barclay": 23724, "axle": 17290, "ham": 10654, "propelled": 15801, "wrinkled": 15968, "##rkin": 26891, "##tric": 12412, "niece": 12286, "noticeably": 25327, "shareholders": 15337, "smirked": 18775, "granville": 24926, "suspected": 6878, "##\u2010": 30048, "##unced": 22392, "resorts": 16511, "possessions": 13689, "appear": 3711, "##llus": 20159, "##plicity": 27293, "[unused222]": 227, "##\u0259": 29681, "torah": 16297, "##cey": 25810, "celebrates": 21566, "##ific": 18513, "##lating": 22248, "woken": 22795, "akron": 22735, "cedric": 26170, "\u0634": 1283, "poorer": 27196, "tract": 12859, "helpless": 13346, "##ih": 19190, "##anger": 25121, "packs": 15173, "geneva": 9810, "##ophone": 25232, "ripley": 25231, "tickets": 9735, "##inated": 15833, "sultan": 7544, "hormones": 20752, "##\u2079": 30078, "included": 2443, "representations": 15066, "##ccus": 27631, "glands": 23340, "stat": 28093, "[unused679]": 684, "nathaniel": 13961, "upward": 10745, "frowns": 29303, "apex": 13450, "holes": 8198, "graduation": 7665, "films": 3152, "##ivating": 17441, "astronomy": 12799, "extremely": 5186, "decorate": 29460, "##erence": 20935, "[unused828]": 833, "##qi": 14702, "followed": 2628, "dj": 6520, "folding": 12745, "[unused390]": 395, "supervised": 13588, "countess": 11716, "translator": 11403, "##dt": 11927, "instincts": 16160, "stolen": 7376, "wednesday": 9317, "princeton": 9173, "##rco": 29566, "267": 25491, "boxed": 27554, "optimism": 27451, "##cars": 20745, "bureaucracy": 25934, "##\u0576": 29778, "mimic": 23150, "powerless": 25192, "ecclesiastical": 12301, "##ota": 17287, "pupil": 11136, "[unused480]": 485, "specially": 11974, "fit": 4906, "kolkata": 13522, "hussain": 20093, "posture": 16819, "rations": 29559, "stemmed": 27674, "twists": 21438, "rubs": 28860, "reconnaissance": 8967, "render": 17552, "lined": 7732, "massacre": 9288, "distributing": 20083, "\u09aa": 1367, "costa": 6849, "\u300a": 1639, "preschool": 23655, "growled": 8881, "34th": 20460, "einstein": 15313, "twelve": 4376, "##\u90fd": 30487, "##fall": 13976, "flexible": 12379, "##nding": 15683, "goodness": 15003, "corporation": 3840, "minas": 21750, "qualify": 7515, "ro": 20996, "##\u30a8": 30224, "thankfully": 16047, "##ocation": 23909, "2001": 2541, "\u09be": 1378, "behind": 2369, "barn": 8659, "jamaican": 17851, "improper": 24156, "tess": 15540, "smoothly": 15299, "1728": 26833, "howell": 18473, "hey": 4931, "##\u06d2": 29846, "##acies": 20499, "listings": 26213, "##nis": 8977, "##sque": 17729, "##inking": 29377, "penang": 21812, "presumably": 10712, "fritz": 12880, "tacoma": 22954, "##nik": 8238, "jumped": 5598, "standings": 11869, "rocket": 7596, "##her": 5886, "naive": 15743, "wade": 10653, "decisive": 13079, "aj": 19128, "denomination": 18683, "##\u8ecd": 30481, "978": 4891, "teresa": 12409, "apologize": 12134, "recycling": 17874, "previously": 3130, "chased": 13303, "poke": 26202, "greatest": 4602, "continuously": 10843, "##lusion": 24117, "cannes": 14775, "appointing": 28050, "##ish": 4509, "##\u6cd5": 30427, "##sphere": 23874, "cantonese": 22241, "lenny": 19065, "inclusion": 10502, "jesus": 4441, "extracted": 15901, "hamid": 24811, "promptly": 13364, "grave": 6542, "sonia": 16244, "instinct": 12753, "guests": 6368, "confluence": 13693, "cannot": 3685, "feeding": 8521, "##\u110e": 30001, "worm": 15485, "restrict": 21573, "unbeaten": 20458, "chaired": 12282, "##57": 28311, "##\u1161": 30006, "\u203f": 1534, "##mons": 16563, "accomplishments": 17571, "cure": 9526, "##hunter": 25629, "hymns": 17777, "##tland": 19270, "20s": 27074, "carolina": 3792, "deported": 17929, "tavern": 13090, "##tted": 16190, "spec": 28699, "##ad": 4215, "diabetes": 14671, "galileo": 21514, "acquisitions": 19530, "models": 4275, "lap": 5001, "##awa": 10830, "radiant": 23751, "eligibility": 11395, "dictionary": 9206, "two": 2048, "oyster": 21480, "##\u03b3": 29721, "[unused708]": 713, "sympathy": 11883, "clicked": 13886, "##haw": 14238, "journal": 3485, "shelly": 28360, "##patient": 24343, "rated": 6758, "commissioned": 4837, "laguna": 18169, "coasts": 20266, "##tness": 27401, "##kam": 27052, "##arian": 12199, "evacuate": 22811, "##ashi": 12914, "flood": 7186, "##ates": 8520, "singh": 5960, "deficit": 15074, "congregational": 20809, "congratulations": 23156, "##onzo": 29452, "[unused669]": 674, "straightforward": 19647, "repairs": 10315, "annually": 6604, "flashed": 8373, "rotting": 22005, "forrest": 16319, "right": 2157, "\u4e5f": 1750, "handicap": 15822, "[unused57]": 58, "##\u0562": 29767, "cuisine": 12846, "podium": 14502, "\u00b4": 1084, "certificate": 8196, "evan": 9340, "founded": 2631, "##\u305b": 30185, "deadly": 9252, "amusement": 9778, "gloss": 27068, "ling": 17002, "youths": 19634, "##thorpe": 22398, "recipient": 7799, "\u65b9": 1863, "hiroshi": 26882, "toast": 15174, "spotting": 27963, "bernardino": 21370, "valiant": 24329, "##zon": 11597, "\u110c": 1464, "partnerships": 13797, "possible": 2825, "profound": 13769, "deep": 2784, "[unused889]": 894, "miocene": 26926, "slayer": 20005, "payne": 13470, "[unused627]": 632, "stillness": 29435, "garner": 18661, "doubts": 13579, "##dies": 18389, "[unused83]": 84, "\u0561": 1219, "humans": 4286, "lunar": 11926, "welded": 29014, "dough": 23126, "archaeological": 7611, "enrico": 21982, "effects": 3896, "conventions": 12472, "##orio": 27416, "childish": 24282, "departmental": 28912, "[unused832]": 837, "auspices": 20153, "##rane": 18053, "napier": 21320, "illinois": 4307, "swap": 19948, "##good": 24146, "cbc": 13581, "efficiently": 18228, "ordered": 3641, "##heard": 26362, "augustus": 11668, "attention": 3086, "naga": 26539, "bicycles": 21066, "lowe": 14086, "bird": 4743, "##nostic": 28199, "322": 23768, "continues": 4247, "illustrated": 7203, "nephew": 7833, ",": 1010, "disconnected": 23657, "facing": 5307, "geschichte": 28299, "06": 5757, "iaaf": 21259, "1906": 5518, "\u30b1": 1703, "##ikh": 28209, "reunite": 25372, "pistons": 24399, "##ans": 6962, "humanist": 24464, "##te": 2618, "[unused115]": 120, "halted": 12705, "##\u0127": 29672, "##rier": 16252, "freed": 10650, "medium": 5396, "[unused178]": 183, "##glia": 20011, "spirit": 4382, "blinded": 20641, "##wo": 12155, "##hone": 27406, "mercantile": 25420, "briefly": 4780, "everyday": 10126, "settings": 10906, "cougars": 26317, "christy": 21550, "1909": 5556, "disqualified": 14209, "marissa": 22767, "nude": 15287, "disabled": 9776, "gasped": 8535, "diplomacy": 17610, "brussels": 9371, "##cen": 27524, "##\u7fa9": 30462, "##blood": 26682, "applicants": 17362, "conference": 3034, "##ishing": 21837, "hubbard": 16580, "sides": 3903, "nave": 12847, "##ag": 8490, "glove": 15913, "substances": 13978, "nightstand": 23135, "upon": 2588, "nation": 3842, "temperance": 23372, "honorable": 13556, "menon": 25111, "crooked": 15274, "gamble": 18503, "##\u5fe0": 30378, "adjoining": 13562, "purse": 8722, "\u9999": 1979, "suite": 7621, "##hil": 19466, "##rel": 16570, "occasionally": 5681, "expression": 3670, "aubrey": 18961, "##ades": 18673, "baba": 14208, "venice": 7914, "[unused699]": 704, "netting": 26909, "abnormal": 19470, "spite": 8741, "##rer": 14544, "stevens": 8799, "404": 24837, "societal": 23382, "turquoise": 28653, "[unused426]": 431, "##creen": 24410, "1612": 29186, "##tish": 24788, "rey": 12569, "appetite": 18923, "judd": 20128, "[unused847]": 852, "telescopes": 28026, "hat": 6045, "watering": 25813, "chapman": 11526, "trash": 11669, "appearing": 6037, "##sm": 6491, "commercials": 12698, "upset": 6314, "wary": 15705, "ignoring": 9217, "reply": 7514, "##\u2026": 30064, "thyroid": 29610, "commented": 7034, "sabah": 22515, "organisms": 11767, "##lind": 27164, "brakes": 13627, "[unused527]": 532, "ryan": 4575, "##ulates": 18969, "midtown": 27219, "316": 23980, "nyu": 27935, "mercenaries": 19331, "continuing": 5719, "charting": 17918, "inflicted": 17303, "gruff": 27038, "peshawar": 28777, "136": 15407, "##db": 18939, "semester": 13609, "fatally": 26292, "ways": 3971, "media": 2865, "giggling": 21783, "coughed": 19055, "attorney": 4905, "##ut": 4904, "lacks": 14087, "southern": 2670, "cumulative": 23260, "sophia": 9665, "hutchinson": 17165, "bowls": 15220, "##mara": 28225, "run": 2448, "960": 26637, "spacecraft": 12076, "shrug": 13409, "uploaded": 21345, "duct": 23245, "quick": 4248, "partridge": 26079, "##pse": 29251, "##adt": 18727, "##it": 4183, "guildford": 26353, "##rled": 27501, "grew": 3473, "intercontinental": 18725, "unconscious": 9787, "##ably": 8231, "##cked": 18141, "##chers": 21844, "romero": 18290, "pueblo": 18273, "unknown": 4242, "heather": 9533, "symmetrical": 23476, "speakers": 7492, "##ero": 10624, "\u05be": 1240, "expeditionary": 15372, "1981": 3261, "[unused785]": 790, "fatalities": 20871, "leaf": 7053, "##tate": 12259, "##hora": 16977, "1764": 21488, "75": 4293, "##ta": 2696, "eastwood": 24201, "monkeys": 17059, "##case": 18382, "vibration": 17880, "##ake": 13808, "stone": 2962, "cleaning": 9344, "cello": 10145, "acacia": 24766, "music": 2189, "##\u7ae0": 30458, "chan": 9212, "systematically": 23087, "manson": 21440, "garments": 21902, "endurance": 14280, "find": 2424, "swirling": 16499, "1860": 7313, "obama": 8112, "poised": 22303, "filmmaker": 12127, "bland": 20857, "energies": 19320, "fists": 10006, "economical": 21791, "##rage": 24449, "##lls": 12718, "##bc": 9818, "##gated": 11644, "saudi": 8174, "legitimate": 11476, "patch": 8983, "arabs": 14560, "counted": 8897, "libraries": 8860, "russo": 17023, "voluntary": 10758, "townland": 23635, "cow": 11190, "228": 22238, "overlooking": 12549, "##nta": 12380, "##\u53f8": 30317, "championed": 28683, "mankind": 14938, "chatham": 16727, "hallmark": 25812, "elites": 27021, "noticed": 4384, "vocal": 5554, "bp": 17531, "##\u0cb0": 29937, "##\u8279": 30465, "benefited": 19727, "chesapeake": 20867, "##ble": 3468, "[unused93]": 94, "\u0649": 1299, "\u306d": 1670, "scanned": 11728, "peat": 23366, "##win": 10105, "pivotal": 20369, "transmission": 6726, "patience": 11752, "##lberg": 22927, "dripped": 22526, "inaccessible": 29104, "eyeing": 19285, "ecstasy": 19069, "accurate": 8321, "##inae": 16414, "[unused310]": 315, "murmur": 20227, "110": 7287, "[unused834]": 839, "doncaster": 18895, "younger": 3920, ")": 1007, "accumulation": 20299, "3d": 7605, "##heimer": 18826, "libertarian": 19297, "exodus": 16388, "\u524d": 1776, "emotional": 6832, "lists": 7201, "its": 2049, "connects": 8539, "trout": 13452, "in": 1999, "cooler": 14976, "evaluating": 23208, "clusters": 12906, "carousel": 27628, "storyline": 9994, "290": 17222, "##rica": 14735, "rosalie": 29564, "nightly": 22390, "##izer": 17629, "##\u090f": 29850, "[unused165]": 170, "gallon": 25234, "[unused714]": 719, "sheer": 11591, "stay": 2994, "\u5e1d": 1838, "##sight": 25807, "115": 10630, "suggest": 6592, "nl": 17953, "socio": 17522, "gear": 6718, "##iec": 23783, "[unused421]": 426, "##\u05de": 29801, "disorders": 10840, "lucha": 25390, "2000": 2456, "collector": 10018, "##\u2261": 30134, "##uit": 14663, "afl": 10028, "##\u2191": 30112, "##chase": 26300, "sidekick": 29240, "lens": 10014, "\u00f8": 1100, "gold": 2751, "##uki": 14228, "resemblance": 14062, "proprietary": 16350, "galerie": 17941, "chords": 18495, "object": 4874, "ruled": 5451, "ito": 23333, "##xed": 19068, "rookie": 8305, "compressed": 16620, "advancing": 10787, "helene": 20149, "qualifiers": 18956, "fraudulent": 27105, "never": 2196, "docked": 25727, "[CLS]": 101, "niger": 16842, "investigators": 14766, "acquire": 9878, "[unused850]": 855, "banging": 22255, "mighty": 10478, "perkins": 13601, "##num": 19172, "[unused529]": 534, "stale": 26729, "##\u2019": 30056, "receptionist": 23775, "##rm": 10867, "activity": 4023, "raider": 27826, "stevenson": 13636, "mundane": 24684, "pigeon": 16516, "[unused626]": 631, "ribbon": 10557, "hide": 5342, "shadowy": 22801, "\u5c07": 1828, "eliza": 13234, "dash": 11454, "bombardment": 10400, "13": 2410, "lille": 22479, "confusing": 16801, "[unused137]": 142, "amended": 13266, "intriguing": 23824, "positioning": 19120, "\u30e2": 1727, "##gonal": 20028, "1937": 4347, "\u2663": 1624, "facilitates": 27777, "alton": 26374, "legion": 8009, "cardinal": 7185, "sincerity": 23997, "##zi": 5831, "##\u028e": 29701, "[unused345]": 350, "##hen": 10222, "dissolution": 12275, "envelope": 11255, "##ipes": 28108, "[unused379]": 384, "davidson": 12017, "stockport": 26284, "outline": 12685, "##over": 7840, "fourier": 26899, "\u0127": 1103, "##ridge": 9438, "trapped": 7567, "pale": 5122, "##sion": 10992, "dedicated": 4056, "dat": 23755, "phase": 4403, "##zz": 13213, "pitchfork": 22355, "sedan": 15134, "parish": 3583, "kathleen": 14559, "grants": 8624, "\u5dde": 1836, "universal": 5415, "defender": 8291, "receptors": 13833, "kimberly": 23729, "blunt": 14969, "##sport": 20205, "maneuver": 17519, "community": 2451, "\u66f2": 1870, "248": 24568, "##sko": 21590, "neurons": 15698, "slots": 19832, "##\u062c": 29819, "botany": 17018, "emery": 24294, "album": 2201, "structure": 3252, "##escu": 19434, "acheron": 21427, "\u02b0": 1140, "\u044a": 1205, "enjoyment": 20195, "aircraft": 2948, "[unused191]": 196, "incapable": 19907, "crowe": 25657, "manga": 8952, "##zzi": 13793, "[unused836]": 841, "##ffy": 16329, "##sonic": 18585, "\u20a4": 1572, "recommend": 16755, "protect": 4047, "damian": 19507, "immensely": 24256, "##gles": 17125, "classes": 4280, "rousseau": 26868, "journeys": 19147, "orchestrated": 23339, "phone": 3042, "bas": 19021, "characterised": 17253, "barre": 23189, "evans": 6473, "renee": 17400, "daddy": 8600, "##rgen": 25892, "dex": 20647, "authoritarian": 27246, "tones": 12623, "inclination": 21970, "holmes": 9106, "negotiate": 13676, "toni": 16525, "##tion": 3508, "austria": 5118, "might": 2453, "strengthened": 13949, "mini": 7163, "##hia": 12995, "scout": 7464, "\u201d": 1524, "##\u3078": 30201, "##jet": 15759, "privatization": 23966, "dubois": 26258, "training": 2731, "[unused196]": 201, "##ander": 12243, "teachers": 5089, "returning": 4192, "newsletter": 17178, "develop": 4503, "sean": 5977, "al": 2632, "campaigned": 16196, "supervisor": 12366, "iroquois": 23015, "occult": 27906, "opponents": 7892, "bodyguards": 25681, "\u304a": 1650, "##\u1d48": 30034, "##mana": 24805, "turtle": 13170, "bodily": 20445, "us": 2149, "pledge": 16393, "pillar": 14809, "mal": 15451, "roi": 25223, "\u00a310": 26812, "seriously": 5667, "malicious": 24391, "somebody": 8307, "connections": 7264, "randy": 9744, "cappella": 23013, "vault": 11632, "ellen": 9155, "cove": 11821, "pristine": 27375, "talmud": 24380, "declined": 6430, "proven": 10003, "survivor": 12084, "seminar": 18014, "fiscal": 10807, "inability": 13720, "##rring": 18807, "rituals": 13549, "couch": 6411, "valencia": 13083, "sealing": 23038, "##teacher": 24741, "moisture": 14098, "wes": 14008, "tire": 12824, "encountered": 8567, "relate": 14396, "milo": 20359, "##ancy": 11656, "##lord": 19980, "prostate": 25086, "among": 2426, "administrator": 8911, "routledge": 21180, "##eric": 22420, "##ified": 7810, "servers": 14903, "1944": 3646, "##\u6e05": 30429, "pbs": 13683, "lankan": 16159, "boundaries": 7372, "[unused383]": 388, "cars": 3765, "dyke": 22212, "preston": 8475, "##real": 22852, "spared": 16891, "##owe": 29385, "cervical": 28711, "\u3068": 1666, "tame": 24763, "34": 4090, "colchester": 20115, "##\u4e5f": 30276, "##\u30e0": 30251, "goat": 13555, "shells": 10986, "[unused707]": 712, "lessons": 8220, "average": 2779, "lauren": 10294, "irrelevant": 22537, "circuit": 4984, "throughout": 2802, "retained": 6025, "communities": 4279, "admiration": 17005, "montane": 21704, "fail": 8246, "##tos": 13122, "travis": 10001, "rift": 16931, "##igen": 29206, "quota": 20563, "coupe": 15130, "stores": 5324, "ceasefire": 26277, "expensive": 6450, "lads": 29126, "##uses": 25581, "cruising": 22206, "twelfth": 11313, "[unused771]": 776, "surviving": 6405, "northwestern": 7855, "subjective": 20714, "jumping": 8660, "cocked": 13179, "ft": 3027, "##aire": 14737, "##gon": 7446, "##take": 15166, "nevertheless": 6600, "nationale": 17360, "belongings": 20033, "noctuidae": 24893, "doyle": 11294, "##ong": 5063, "raised": 2992, "smashing": 21105, "walks": 7365, "belong": 7141, "tully": 25724, "contenders": 27236, "alma": 11346, "undergone": 17215, "echo": 9052, "##ecure": 29150, "*": 1008, "2014": 2297, "boasted": 23390, "##felt": 26675, "##gf": 25708, "interned": 26345, "##lau": 17298, "##ented": 14088, "shareholder": 18668, "1872": 7572, "commissions": 13239, "dealing": 7149, "mug": 14757, "expenditures": 22697, "[unused634]": 639, "##very": 27900, "newt": 25597, "jeremiah": 17526, "octopus": 24318, "backlash": 25748, "paz": 18183, "marquess": 17391, "##kor": 21815, "fidelity": 22625, "[unused988]": 993, "trousers": 15292, "popularity": 6217, "\u8c9d": 1952, "clemson": 25906, "tightened": 8371, "signatures": 16442, "specifications": 15480, "bio": 16012, "##mble": 19661, "region": 2555, "gesellschaft": 27482, "sunrise": 13932, "##abad": 10542, "slide": 7358, "strauss": 16423, "##lman": 12624, "##oration": 21223, "qb": 26171, "1913": 5124, "177": 18118, "goaltender": 21437, "1766": 21410, "beck": 10272, "ross": 5811, "package": 7427, "##aine": 18175, "relied": 13538, "boomed": 28908, "andrey": 29219, "groans": 27778, "sincere": 18006, "darmstadt": 28381, "december": 2285, "nationalities": 24904, "dalai": 28511, "[unused683]": 688, "proportions": 19173, "##oz": 18153, "51": 4868, "geek": 29294, "rescues": 26001, "ravens": 17272, "\u0142odz": 17814, "cafes": 23812, "aiding": 24791, "bi": 12170, "quincy": 16141, "\u3075": 1674, "flanking": 24958, "emil": 16243, "cancer": 4456, "sh": 14021, "kincaid": 24510, "steve": 3889, "amnesia": 29222, "topological": 24309, "failed": 3478, "##\u30b5": 30231, "film": 2143, "330": 14210, "##oe": 8913, "actual": 5025, "techniques": 5461, "whistle": 13300, "explosions": 18217, "argument": 6685, "vuelta": 21441, "consort": 13440, "subsequent": 4745, "neighborhoods": 11681, "elliott": 9899, "stand": 3233, "pei": 26850, "carnage": 27450, "definite": 15298, "crouch": 21676, "randolph": 13031, "emblem": 16199, "cliffs": 13333, "lump": 15116, "##\u09a6": 29900, "260": 13539, "##ision": 19969, "gogh": 26603, "lazarus": 23623, "segunda": 19071, "noisy": 20810, "knots": 9439, "murdoch": 19954, "##\u25a0": 30144, "grasping": 20854, "##eche": 27635, "cliff": 7656, "takeoff": 19744, "wayne": 6159, "incorporates": 12374, "21st": 7398, "##ence": 10127, "[unused65]": 66, "dipped": 13537, "didn": 2134, "##nas": 11649, "rights": 2916, "other": 2060, "graph": 10629, "bohemian": 18063, "limbs": 10726, "designate": 24414, "completes": 28123, "\u3082": 1681, "scare": 12665, "sensed": 10596, "##dog": 16168, "riaa": 22716, "inclusive": 18678, "domenico": 18638, "navigation": 9163, "[unused46]": 47, "dawned": 27702, "##fat": 27753, "accept": 5138, "[unused373]": 378, "tackles": 10455, "fun": 4569, "narrated": 17356, "\u0ca8": 1400, "\u099b": 1357, "keep": 2562, "igor": 14661, "mandela": 26887, "tend": 7166, "##dent": 16454, "noticeable": 17725, "##henko": 19767, "astronomer": 15211, "ravaged": 25537, "landowner": 20270, "visitor": 10367, "constraint": 27142, "clones": 24418, "##rove": 17597, "equations": 11380, "##fi": 8873, "grown": 4961, "##\u79cb": 30455, "gay": 5637, "279": 25745, "sentimental": 23069, "optic": 22816, "##genesis": 23737, "skipping": 25978, "scaled": 18953, "dirk": 17594, "immature": 26838, "erin": 11781, "pointedly": 28713, "\u0630": 1279, "##kovsky": 23829, "provost": 18523, "replay": 15712, "##olic": 23518, "sarajevo": 18354, "wisdom": 9866, "transcription": 14193, "[unused507]": 512, "shouted": 6626, "##54": 27009, "amber": 8994, "##rta": 13320, "brawl": 23244, "##iser": 17288, "crambidae": 21585, "guilty": 5905, "\u09b8": 1376, "stan": 9761, "conflicts": 9755, "[unused205]": 210, "bubba": 19606, "trouble": 4390, "##weig": 27204, "thailand": 6504, "##koto": 24886, "eldest": 7310, "fernando": 9158, "##you": 29337, "verde": 16184, "minsk": 20790, "consolidated": 10495, "mbe": 20301, "##lence": 22717, "haitian": 21404, "keyboard": 9019, "##va": 3567, "treatment": 3949, "##ocks": 25384, "##bino": 21891, "mans": 16042, "heavenly": 16581, "contrasts": 23347, "nesting": 21016, "hanged": 17818, "##\u2032": 30066, "nasa": 9274, "bush": 5747, "lecturer": 9162, "noah": 7240, "southernmost": 21787, "textures": 29343, "dismay": 20006, "maggie": 8538, "peer": 8152, "##iation": 18963, "tourist": 7538, "digest": 17886, "dedication": 12276, "states": 2163, "loop": 7077, "clements": 28572, "mackay": 17090, "martial": 7761, "shipbuilding": 16802, "saxophonist": 19977, "hudson": 6842, "\u307e": 1677, "celia": 18020, "makes": 3084, "filling": 8110, "bolivar": 22118, "georges": 10870, "freshwater": 12573, "adrenaline": 14963, "grimaced": 19014, "stephan": 15963, "##rka": 22379, "autonomous": 8392, "strange": 4326, "##bil": 14454, "outlawed": 29131, "[unused882]": 887, "renaming": 24944, "##\u5343": 30310, "hyper": 23760, "##\u02bf": 29714, "##itia": 29050, "\u05dc": 1253, "afb": 16909, "300": 3998, "heterosexual": 28229, "necessary": 4072, "##qu": 28940, "researcher": 10753, "mines": 7134, "catalina": 22326, "##dhar": 25632, "bundles": 26825, "##nstein": 15493, "dashed": 18198, "##tour": 21163, "##rocity": 21735, "jailed": 21278, "##birds": 12887, "scene": 3496, "soprano": 10430, "##zziness": 29212, "##\u03bd": 16177, "abstract": 10061, "margin": 7785, "hesitant": 20221, "alain": 15654, "demoted": 25692, "ware": 16283, "cancelled": 8014, "thompson": 5953, "##\u09b9": 29913, "groundbreaking": 23222, "successors": 18530, "lawyer": 5160, "ymca": 26866, "indy": 18214, "tunisian": 22946, "butt": 10007, "##lou": 23743, "erased": 23516, "sixty": 8442, "##km": 22287, "monks": 9978, "bats": 12236, "[unused80]": 81, "programme": 4746, "\u6b62": 1887, "##lham": 25968, "accepts": 13385, "\u0987": 1349, "##test": 22199, "touchdowns": 10183, "##\u02e4": 29719, "injured": 5229, "[unused169]": 174, "military": 2510, "##sian": 17043, "vivo": 24269, "que": 10861, "excellent": 6581, "jericho": 17309, "##wani": 29092, "thumbs": 16784, "airport": 3199, "pumping": 14107, "bull": 7087, "cardinals": 9310, "\u0921": 1321, "abstracts": 29474, "kinase": 21903, "##ally": 3973, "radically": 25796, "therapy": 7242, "promises": 10659, "press": 2811, "##\u0582": 29785, "astronauts": 25881, "ve": 2310, "##pur": 5311, "louis": 3434, "full": 2440, "calmly": 12885, "robust": 15873, "rotation": 9963, "windshield": 19521, "209": 19348, "accumulate": 27598, "china": 2859, "corner": 3420, "##lei": 23057, "\u661f": 1866, "stable": 6540, "anything": 2505, "clube": 24852, "nyc": 16392, "##ard": 4232, "##uda": 14066, "seaside": 20276, "biomass": 28148, "morally": 28980, "geography": 10505, "electronic": 4816, "reserves": 8269, "climate": 4785, "rutland": 27780, "##dome": 26173, "tolerate": 19242, "currents": 14731, "pictured": 15885, "teller": 21322, "stalks": 29594, "sf": 16420, "peaceful": 9379, "zen": 16729, "synthesizers": 22211, "422": 29269, "38": 4229, "carbonate": 26427, "\u6c11": 1892, "smack": 21526, "whereupon": 26090, "bleak": 21657, "wilkes": 20635, "zeke": 18270, "gem": 17070, "dotted": 20384, "##hum": 28600, "##post": 19894, "masked": 16520, "force": 2486, "##aves": 21055, "adaptations": 17241, "##plex": 19386, "[unused879]": 884, "breton": 16659, "suspicious": 10027, "asiatic": 23983, "##zam": 20722, "haul": 14655, "##ulu": 20391, "bride": 8959, "remastered": 19484, "fetal": 25972, "speculation": 12143, "xiao": 19523, "walt": 10598, "plank": 24000, "burden": 10859, "amazingly": 29350, "prayers": 12583, "hypothesis": 10744, "sandy": 7525, "tackle": 11147, "iceland": 10399, "opportunities": 6695, "agricultural": 4910, "##sta": 9153, "kenton": 25446, "influencing": 25870, "consequences": 8465, "sanity": 20039, "##nse": 12325, "fingertips": 12206, "goal": 3125, "licenses": 15943, "pathology": 19314, "elisa": 29490, "jurisdiction": 7360, "\u0bbe": 1395, "ballroom": 14307, "porn": 22555, "\u00b0c": 6362, "##zman": 24340, "em": 7861, "tex": 16060, "category": 4696, "climbing": 8218, "settlement": 4093, "arabian": 13771, "graduate": 4619, "s": 1055, "friars": 24037, "exclusively": 7580, "dart": 14957, "##aru": 15728, "topics": 7832, "suez": 21974, "nh": 18699, "prototype": 8773, "solutions": 7300, "##bad": 9024, "homogeneous": 24854, "dinner": 4596, "statistics": 6747, "##xide": 19491, "\u043f": 1194, "spoil": 27594, "[unused932]": 937, "volatile": 20606, "replacing": 6419, "##lative": 26255, "mega": 13164, "bournemouth": 22882, "funk": 11962, "hound": 19598, "price": 3976, "distances": 12103, "sofa": 10682, "postseason": 17525, "dominates": 29532, "affair": 6771, "##arts": 20591, "adoptive": 24787, "physical": 3558, "1739": 25801, "christians": 8135, "rapids": 12775, "ceramics": 17314, "coma": 16571, "brain": 4167, "##uj": 23049, "coincided": 18616, "##andra": 29159, "relationships": 6550, "prestigious": 8919, "attempt": 3535, "crack": 8579, "\u056b": 1225, "inspector": 7742, "ti": 14841, "ideal": 7812, "olympian": 25977, "rain": 4542, "presenter": 10044, "cheat": 21910, "roy": 6060, "denise": 15339, "record": 2501, "influential": 6383, "nottinghamshire": 20126, "shipments": 24636, "quay": 21048, "denote": 19090, "##iti": 25090, "mechanical": 6228, "accusation": 19238, "orthodox": 6244, "colleague": 11729, "\u05e6": 1263, "caught": 3236, "##ping": 4691, "democrats": 8037, "salim": 27490, "nils": 27282, "stilled": 22791, "##cliffe": 18115, "##cade": 21869, "##zzle": 17644, "ernie": 14637, "cuckoo": 29010, "huts": 23326, "##\u5e1d": 30364, "mika": 27857, "[unused803]": 808, "bali": 20222, "clutches": 29497, "\u0449": 1204, "stamped": 20834, "priesthood": 17911, "antics": 27440, "scrolls": 23074, "##dis": 10521, "##\u5916": 30335, "steward": 17946, "quarry": 12907, "##ending": 18537, "poets": 9736, "hormone": 18714, "##hon": 8747, "thoughtfully": 19897, "capabilities": 9859, "[unused919]": 924, "##\u8449": 30469, "210": 12875, "##bation": 23757, "##eto": 18903, "headquarters": 4075, "cassandra": 15609, "\u1d2e": 1491, "variations": 8358, "2020": 12609, "##yra": 19563, "##ater": 24932, "calvin": 11130, "alta": 23647, "restructuring": 18322, "##\u7248": 30433, "barnard": 22266, "\u04cf": 1218, "chocolate": 7967, "##type": 13874, "trials": 7012, "1710": 23841, "[unused142]": 147, "barrier": 8803, "enforcing": 27455, "restart": 23818, "charitable": 11128, "invariant": 23915, "macau": 16878, "compressor": 29329, "disapproval": 21406, "muzzle": 17750, "##hot": 12326, "\u025b": 1115, "gerry": 14926, "infection": 8985, "option": 5724, "chang": 11132, "auditions": 21732, "theologian": 17200, "##ation": 3370, "become": 2468, "rudd": 25298, "\u4e45": 1748, "joyce": 11830, "robson": 23698, "pants": 6471, "meal": 7954, "kendrick": 25341, "##onus": 24891, "163": 17867, "##yin": 25811, "unwanted": 18162, "zu": 16950, "home": 2188, "alarmed": 19260, "mach": 24532, "escapes": 12976, "##\u05e3": 29806, "hooper": 23717, "manufacturers": 8712, "managed": 3266, "##dy": 5149, "scan": 13594, "developed": 2764, "[unused939]": 944, "##\u592b": 30339, "january": 2254, "lev": 23310, "indies": 9429, "fatigue": 16342, "ronan": 18633, "fiancee": 19455, "##ani": 7088, "##\u093f": 29877, "scrambled": 13501, "propose": 16599, "39": 4464, "[unused8]": 9, "hearings": 19153, "geared": 23636, "definitely": 5791, "west": 2225, "##oulos": 28262, "margins": 17034, "cid": 28744, "worry": 4737, "\u6211": 1855, "##bach": 7693, "##mma": 14760, "##fare": 17883, "erupted": 12591, "kernel": 16293, "reuters": 26665, "##13": 17134, "midland": 12240, "mute": 20101, "weeping": 19750, "clues": 15774, "[unused38]": 39, "callahan": 25668, "competitor": 12692, "##sman": 11512, "adulthood": 20480, "orderly": 23589, "finish": 3926, "##hine": 14014, "##not": 17048, "name": 2171, "323": 25392, "[unused135]": 140, "antiquities": 21387, "allies": 6956, "gone": 2908, "inferior": 14092, "##\u4e45": 30274, "preferring": 21393, "suppressed": 13712, "provisional": 10864, "##ges": 8449, "[unused787]": 792, "##rem": 28578, "hong": 4291, "leaping": 21216, "unnamed": 13294, "11": 2340, "toxic": 11704, "[unused455]": 460, "adaptive": 19293, "feminist": 10469, "sergeant": 6722, "scoop": 23348, "##qui": 15549, "differentiation": 20582, "derelict": 28839, "closed": 2701, "goodwill": 22875, "ut": 21183, "shrubs": 18812, "shin": 12277, "[unused748]": 753, "##gnan": 28207, "filtering": 22910, "accordion": 19060, "decreasing": 16922, "bsc": 23533, "acted": 6051, "##ulation": 9513, "parliament": 3323, "maize": 21154, "prevalent": 15157, "##ury": 13098, "##\u0561": 29766, "supplements": 25654, "ulrich": 19619, "wagon": 9540, "decidedly": 27873, "treason": 14712, "##yes": 23147, "gradual": 16612, "sank": 7569, "strategically": 23972, "already": 2525, "protest": 6186, "[unused929]": 934, "\u304d": 1652, "unexpectedly": 14153, "suspended": 6731, "sustaining": 22663, "settlements": 7617, "accent": 9669, "caracas": 21675, "##mini": 25300, "prejudice": 18024, "weave": 25308, "athenian": 26956, "##fen": 18940, "guarantee": 11302, "conviction": 10652, "##osa": 8820, "cal": 10250, "interviewing": 27805, "##usions": 22016, "borrowed": 11780, "hero": 5394, "##ntly": 20630, "floors": 8158, "suffering": 6114, "xp": 26726, "wind": 3612, "experts": 8519, "echoing": 17142, "255": 20637, "sienna": 20210, "##\u2264": 30135, "renamed": 4096, "slamming": 15209, "##\u22c5": 30141, "escorts": 24877, "twenty20": 22240, "regulates": 26773, "##iform": 22631, "\u307b": 1676, "progress": 5082, "hermit": 24308, "winters": 12214, "bedrooms": 18390, "hassan": 13222, "##ogenic": 24278, "cheryl": 19431, "conservatory": 11879, "\u6c0f": 1891, "shoot": 5607, "dean": 4670, "maid": 10850, "usd": 13751, "shortage": 15843, "##dock": 14647, "commentator": 12268, "entropy": 23077, "passport": 12293, "boots": 6879, "\u045a": 1216, "rus": 22949, "##gues": 22967, "##ested": 17944, "##\u099c": 29894, "valley": 3028, "##clusive": 23633, "litter": 19070, "mein": 24182, "muriel": 27616, "freyja": 7075, "2009": 2268, "reduced": 4359, "upright": 10051, "[unused972]": 977, "appreciate": 9120, "wept": 24966, "brighton": 10309, "joo": 28576, "##icio": 27113, "manuscript": 8356, "[unused603]": 608, "bus": 3902, "hilarious": 26316, "juarez": 25398, "willem": 18811, "verbs": 16025, "monitored": 17785, "ray": 4097, "specify": 20648, "loading": 10578, "hebrew": 6836, "\u79c0": 1928, "flawless": 27503, "mosques": 21922, "refrain": 20703, "tides": 22487, "##iva": 11444, "##ception": 24422, "sc": 8040, "chaplin": 23331, "##\u5206": 30301, "missions": 6416, "moons": 23377, "##kulam": 28871, "meg": 12669, "rains": 15811, "##\u5b97": 30347, "advertisement": 15147, "keys": 6309, "brutally": 23197, "reorganisation": 24934, "pga": 14198, "1878": 7261, "hanson": 17179, "##ncia": 22750, "ann": 5754, "manhattan": 7128, "flags": 9245, "jam": 9389, "columbia": 3996, "strawberry": 16876, "##rley": 12866, "ferguson": 11262, "boise": 23193, "penthouse": 22855, "prefix": 17576, "\u3086": 1683, "astrid": 27376, "##yu": 10513, "frontiers": 28750, "##eau": 10207, "##tin": 7629, "[unused519]": 524, "1888": 6690, "weekly": 4882, "allegedly": 9382, "##meral": 28990, "cb": 17324, "reactivated": 28577, "appliances": 22449, "shutter": 28180, "specifically": 4919, "##zic": 27586, "everything": 2673, "performer": 9256, "icao": 18055, "##\u767a": 30440, "dangerously": 20754, "spying": 22624, "dungeon": 16633, "##iga": 13340, "##rg": 10623, "wavy": 23098, "trailing": 12542, "precedent": 20056, "mania": 29310, "##udy": 20217, "erskine": 27139, "##ango": 23422, "demonstrated": 7645, "bite": 6805, "stephenson": 19789, "magnesium": 24983, "ness": 23384, "enthusiastic": 14727, "carving": 18441, "##pore": 26691, "##ppa": 13944, "##\u00be": 29665, "##49": 26224, "##vier": 14356, "patiently": 19080, "distributor": 16632, "riff": 24808, "\u30b5": 1705, "silently": 8601, "youth": 3360, "positive": 3893, "flinched": 19201, "spectrum": 8674, "redundant": 21707, "knit": 22404, "center": 2415, "enjoyable": 22249, "this": 2023, "rolling": 5291, "172": 18253, "soothe": 28384, "merged": 5314, "##itic": 18291, "archaeology": 12009, "##sl": 14540, "##mide": 24284, "thirteenth": 14725, "##orra": 24285, "bacterial": 17341, "alter": 11477, "elongated": 17876, "caliph": 22733, "##\u793e": 30450, "removal": 8208, "\u062c": 1275, "comical": 29257, "perched": 17335, "\u2099": 1568, "gibbs": 15659, "talents": 11725, "ll": 2222, "chick": 14556, "##wy": 18418, "##cino": 21081, "##ape": 24065, "incorporation": 16935, "##nat": 19833, "tributaries": 15777, "##\u6210": 30380, "##rned": 21119, "emergence": 14053, "##awan": 25903, "##\u771f": 30447, "##cu": 10841, "dakota": 7734, "armstrong": 9143, "capitol": 9424, "regent": 11315, "##\u00a1": 29644, "worst": 5409, "rani": 21617, "conferences": 9281, "terminology": 18444, "##52": 25746, "conversation": 4512, "fires": 8769, "faltered": 26015, "exiting": 22371, "huntington": 16364, "america": 2637, "rangers": 7181, "lot": 2843, "necks": 26082, "racer": 14878, "##set": 13462, "filtered": 21839, "present": 2556, "##\u66f2": 30396, "merchant": 6432, "wryly": 28325, "walnut": 18489, "pg": 18720, "africa": 3088, "##dick": 24066, "##ano": 6761, "wolf": 4702, "fact": 2755, "##med": 7583, "1560": 29185, "rudder": 24049, "phillips": 8109, "\u1d62": 1507, "artworks": 22000, "thread": 11689, "rc": 22110, "##ghton": 21763, "equatorial": 21333, "unusual": 5866, "merely": 6414, "museums": 9941, "straighten": 28568, "[unused521]": 526, "lifestyle": 9580, "nationals": 10342, "##otide": 26601, "apology": 12480, "fifa": 5713, "midst": 12930, "[unused116]": 121, "##rani": 21578, "warsaw": 8199, "usual": 5156, "scheme": 5679, "stumble": 21811, "stefan": 8852, "clustered": 25221, "shot": 2915, "peripheral": 15965, "##\u0638": 29829, "handkerchief": 23975, "francs": 24313, "whiskey": 13803, "adventure": 6172, "highly": 3811, "openly": 10132, "programmer": 20273, "consumer": 7325, "##ward": 7652, "\u2032": 1531, "automatic": 6882, "plug": 13354, "##d": 2094, "##adia": 25205, "roger": 5074, "audience": 4378, "collegiate": 9234, "decca": 21079, "nomination": 6488, "lgbt": 12010, "68": 6273, "##minate": 19269, "\u0baa": 1388, "##fold": 10371, "##oss": 15094, "[unused173]": 178, "sixteenth": 14683, "m": 1049, "should": 2323, "fremantle": 20358, "##olio": 29401, "elevator": 7764, "zagreb": 12974, "mandir": 22700, "comrades": 19033, "pornographic": 26932, "zurich": 10204, "ass": 4632, "controlled": 4758, "petitions": 24320, "stands": 4832, "[unused201]": 206, "instruction": 7899, "dewey": 20309, "investor": 14316, "##\u014b": 29673, "[unused820]": 825, "libertadores": 27968, "##plate": 15725, "\u028a": 1132, "directly": 3495, "liverpool": 6220, "bishop": 3387, "cooper": 6201, "recital": 25521, "boundary": 6192, "mfa": 26913, "solids": 26778, "##oki": 23212, "lasting": 9879, "##eal": 15879, "governmental": 10605, "bret": 25626, "regina": 12512, "##di": 4305, "##ized": 3550, "violating": 20084, "##ffa": 20961, "award": 2400, "hale": 13084, "jasper": 14791, "finances": 16156, "humid": 14178, "communism": 15523, "\u5929": 1811, "iata": 9833, "restaurant": 4825, "pray": 11839, "glover": 20012, "messiah": 22112, "internationale": 21339, "fest": 17037, "sings": 10955, "##logic": 27179, "liv": 22135, "265": 20549, "ashe": 13402, "161": 17365, "##era": 6906, "yokohama": 20507, "acids": 12737, "inviting": 15085, "studio": 2996, "depths": 11143, "honesty": 16718, "ana": 9617, "boards": 7923, "zheng": 20985, "##cola": 26289, "##lane": 20644, "eternal": 10721, "pakistan": 4501, "cowboy": 11762, "sheltered": 18304, "[unused488]": 493, "emancipation": 22656, "leaning": 6729, "signaled": 22319, "answers": 6998, "##meo": 26247, "involving": 5994, "[unused885]": 890, "\u8033": 1937, "excerpts": 24962, "##tle": 9286, "dormant": 22170, "crossover": 16335, "connecting": 7176, "isa": 18061, "customs": 8205, "unveiled": 11521, "##ssar": 25556, "rf": 21792, "customer": 8013, "\u1da0": 1512, "adversary": 27248, "primarily": 3952, "langley": 19094, "consciousness": 8298, "depot": 8470, "##bots": 27014, "chris": 3782, "successes": 14152, "opener": 16181, "roberta": 23455, "posts": 8466, "nut": 17490, "vaccines": 28896, "spa": 12403, "bends": 23394, "##rb": 15185, "packard": 24100, "undertook": 12543, "tangled": 14170, "\u5fc4": 1850, "preacher": 14512, "1896": 6306, "appendix": 22524, "doi": 9193, "leonard": 7723, "wee": 16776, "##grave": 12830, "washing": 12699, "libel": 26201, "##\u03c4": 29734, "intersections": 26540, "##rey": 15202, "forts": 15421, "##ryn": 18143, "##imov": 25299, "roosevelt": 8573, "repeat": 9377, "##ides": 8621, "##rts": 21217, "developers": 9797, "determine": 5646, "##ary": 5649, "##gum": 22850, "hazards": 22010, "connection": 4434, "##yan": 7054, "wielding": 26974, "##cting": 11873, "district": 2212, "tommy": 6838, "##\u2014": 30052, "plata": 19534, "ter": 28774, "wan": 14071, "driveway": 11202, "##ike": 17339, "ni": 9152, "poured": 8542, "\u1d49": 1499, "revolver": 17863, "bulbs": 25548, "woven": 17374, "speeches": 13867, "dortmund": 23912, "##drick": 24092, "holster": 29447, "align": 25705, "girl": 2611, "professionals": 8390, "[unused161]": 166, "##lib": 29521, "flatly": 24295, "seats": 4272, "nirvana": 26530, "##na": 2532, "travels": 7930, "pocket": 4979, "scissors": 25806, "presently": 12825, "\u0bb2": 1392, "leverage": 21155, "apologies": 25380, "filed": 6406, "##zione": 20574, "catchment": 22865, "##cure": 23887, "sherman": 11011, "\u06be": 1307, "roc": 21326, "proportional": 14267, "netherlands": 4549, "taxa": 23726, "olsen": 18997, "##gm": 21693, "[unused606]": 611, "fates": 26417, "poles": 10567, "twist": 9792, "##chner": 28254, "romantic": 6298, "640": 19714, "ranged": 15844, "nathan": 7150, "1833": 11040, "proud": 7098, "hopped": 17230, "selling": 4855, "defeated": 3249, "kowalski": 28874, "disgusted": 17733, "1917": 4585, "inspecting": 29508, "\u30ab": 1700, "orphanage": 18504, "##\u4ebb": 30283, "do": 2079, "simultaneously": 7453, "hurt": 3480, "distributed": 5500, "##ffey": 24513, "vibe": 21209, "crowley": 20748, "\u4fe1": 1767, "##ha": 3270, "[unused975]": 980, "##ently": 28198, "boyd": 12164, "domes": 26193, "blast": 8479, "khan": 4967, "founding": 4889, "=": 1027, "mausoleum": 19049, "siberian": 21822, "munchen": 25802, "##yles": 26274, "fredrik": 25454, "basically": 10468, "jem": 24193, "pursuits": 23719, "sabine": 18578, "fire": 2543, "rhea": 24775, "[unused977]": 982, "busted": 23142, "parisian": 24262, "les": 4649, "##ro": 3217, "\u2089": 1556, "explode": 15044, "asteroid": 12175, "umpire": 20887, "hee": 18235, "##space": 23058, "unavailable": 20165, "sidewalks": 28386, "softer": 19013, "backstage": 20212, "attaining": 26615, "liberal": 4314, "\u1109": 1461, "\u2190": 1583, "irina": 25404, "ruiz": 18773, "upstream": 13909, "gaps": 16680, "oregon": 5392, "##sible": 19307, "##col": 25778, "nursing": 8329, "affect": 7461, "awesome": 12476, "gunter": 27834, "hines": 25445, "beard": 10154, "woodstock": 21028, "aforementioned": 17289, "ghostly": 24407, "quinn": 8804, "turin": 13667, "franco": 9341, "##emy": 26662, "family": 2155, "sierra": 7838, "gingerly": 26961, "##aco": 22684, "avenues": 20859, "numbered": 8597, "philology": 29286, "adhere": 25276, "cad": 28353, "vines": 16702, "russia": 3607, "\u2075": 1539, "difficult": 3697, "dissolved": 8314, "##\u1100": 29991, "coach": 2873, "[unused107]": 112, "fiji": 11464, "##vic": 7903, "from": 2013, "tightly": 7371, "impress": 17894, "nigel": 12829, "utrecht": 18361, "mellon": 22181, "florian": 29517, "library": 3075, "drinks": 8974, "yugoslavia": 8936, "##osomal": 27642, "##oris": 21239, "##version": 27774, "##ksha": 28132, "[unused297]": 302, "##\u6211": 30381, "goodman": 14514, "flynn": 13259, "devotees": 22707, "brought": 2716, "certification": 10618, "angrily": 14136, "call": 2655, "\u0562": 1220, "councillor": 10674, "coca": 16787, "casts": 23942, "newscasts": 24482, "beige": 28799, "shuffle": 23046, "disappeared": 5419, "ensign": 19890, "letters": 4144, "iconic": 14430, "swell": 18370, "booklet": 19271, "hence": 6516, "dependency": 24394, "##\u09a4": 29898, "theaters": 12370, "persian": 4723, "made": 2081, "targeted": 9416, "folklore": 13104, "\u0938": 1338, "oceans": 17401, "decker": 20946, "houston": 5395, "sensitivity": 14639, "mildly": 19499, "##wood": 3702, "##rooms": 29020, "enterprise": 6960, "tail": 5725, "delicious": 12090, "[unused503]": 508, "##stad": 16917, "##riated": 25475, "mastery": 26364, "israelis": 28363, "\u0432": 1182, "coding": 16861, "attractions": 13051, "##rot": 21709, "##bourg": 20431, "okay": 3100, "heroes": 7348, "economist": 11708, "##elin": 18809, "famed": 15607, "##\u2227": 30129, "cattle": 7125, "##\u2044\u2084": 27392, "##rca": 18992, "beam": 7504, "thirty": 4228, "marine": 3884, "remind": 10825, "trunk": 8260, "##bles": 13510, "##ders": 13375, "##tops": 25181, "thorns": 28408, "##\uff1a": 30519, "eileen": 20495, "slippery": 22274, "hickory": 28158, "classified": 6219, "##ations": 10708, "views": 5328, "wandered": 13289, "extent": 6698, "\u5185": 1773, "\u25aa": 1618, "seychelles": 27438, "horton": 18469, "##icle": 25128, "negatively": 19762, "himalayan": 28333, "curran": 19649, "amusing": 19142, "690": 28066, "##ross": 25725, "ramirez": 15206, "toys": 10899, "1940": 3878, "[unused799]": 804, "peak": 4672, "##ppy": 27659, "splashed": 22055, "etc": 4385, "walsh": 11019, "##\u2207": 30123, "corporal": 14265, "creator": 8543, "expressed": 5228, "baghdad": 13952, "spawn": 25645, "275": 17528, "carlson": 22226, "sites": 4573, "disposal": 13148, "angola": 13491, "uniform": 6375, "##bular": 28808, "[unused307]": 312, "connecticut": 6117, "##\u00ac": 29655, "daily": 3679, "phases": 12335, "study": 2817, "##tes": 4570, "rushed": 6760, "rbis": 23583, "enlist": 28845, "fat": 6638, "##41": 23632, "den": 7939, "\u2080": 1547, "##\u2154": 30110, "##uance": 26620, "sample": 7099, "panel": 5997, "sends": 10255, "fearful": 19725, "launching": 12106, "perry": 6890, "brest": 22451, "elaine": 15263, "730": 28004, "exceptions": 11790, "charms": 24044, "##rina": 11796, "\u026b": 1120, "occurring": 10066, "flesh": 5771, "archipelago": 13888, "gia": 27699, "tolerant": 23691, "\u02bf": 1148, "potassium": 18044, "##vah": 21927, "lowland": 15234, "roach": 20997, "##xin": 20303, "swinging": 11820, "ajax": 18176, "\u2191": 1584, "fabio": 25616, "predatory": 21659, "beit": 28236, "accelerator": 23468, "committed": 5462, "##\u062a": 29817, "tanner": 12780, "##\u0986": 29884, "attitude": 7729, "mental": 5177, "instability": 18549, "murdering": 21054, "m1": 23290, "curses": 23897, "xbox": 12202, "pending": 14223, "closely": 4876, "##gingly": 28392, "dora": 21008, "rex": 10151, "##w": 2860, "weasel": 29268, "belgarath": 21256, "##tley": 18492, "imam": 17189, "##dly": 18718, "county": 2221, "scrape": 26988, "camden": 13267, "wizard": 10276, "chatting": 22331, "zach": 12397, "whisky": 21265, "reaper": 19559, "##oi": 10448, "sg": 22214, "news": 2739, "condemned": 10033, "##quist": 18331, "labor": 4450, "subcontinent": 26125, "uncanny": 28953, "tim": 5199, "donors": 17843, "exercising": 28428, "ibn": 7839, "arcade": 10877, "steered": 23424, "redesigned": 17051, "tongues": 19677, "rutherford": 18472, "chester": 8812, "##ssion": 28231, "[unused89]": 90, "##\u307f": 30204, "cyclic": 23750, "tease": 18381, "calculating": 20177, "6000": 25961, "castle": 3317, "##90": 21057, "menu": 12183, "heavens": 17223, "pink": 5061, "##chule": 20269, "jay": 6108, "##je": 6460, "bono": 23648, "lombardy": 27728, "proportion": 10817, "ala": 21862, "##\u11af": 30022, "##\u3084": 30208, "hog": 27589, "hit": 2718, "register": 4236, "represented": 3421, "wreck": 12006, "##riation": 18769, "harshly": 21052, "ozone": 26443, "newly": 4397, "##mine": 11233, "\u00b0f": 8157, "\u00b6": 1086, "empire": 3400, "##lie": 8751, "390": 20024, "undermine": 25174, "samantha": 11415, "##emann": 17545, "fbi": 8495, "atkins": 21087, "johanna": 21498, "##dget": 24291, "necessarily": 9352, "sho": 26822, "palaces": 22763, "delays": 14350, "\u2205": 1593, "##ele": 12260, "capacity": 3977, "[unused328]": 333, "slipping": 11426, "tribe": 5917, "##eros": 27360, "janeiro": 11497, "apparently": 4593, "ascending": 22316, "[unused211]": 216, "due": 2349, "graduated": 3852, "##dae": 6858, "photograph": 9982, "showed": 3662, "##tm": 21246, "##bian": 15599, "tv": 2694, "winners": 4791, "negative": 4997, "struggle": 5998, "increase": 3623, "reintroduced": 28263, "nests": 17415, "##uta": 13210, "##boarding": 21172, "utmost": 27917, "staples": 24533, "highlights": 11637, "certificates": 17987, "brings": 7545, "##wives": 23744, "lacked": 10858, "indigenous": 6284, "##dc": 16409, "##mology": 20570, "stains": 27094, "123": 13138, "##veda": 28614, "unto": 19662, "impairment": 25172, "trained": 4738, "strongest": 10473, "##wk": 26291, "##otype": 26305, "werewolves": 18306, "1793": 12387, "chip": 9090, "exemption": 19621, "jogging": 28233, "integrity": 11109, "ada": 15262, "nuremberg": 19346, "##uke": 15851, "shapiro": 24630, "answered": 4660, "kepler": 28219, "##eim": 12112, "rebounds": 11049, "starter": 11753, "turmoil": 17930, "##washed": 27283, "subspecies": 11056, "##\u2190": 30111, "simpler": 16325, "feed": 5438, "minors": 18464, "restarted": 25606, "251": 22582, "gdansk": 21942, "1997": 2722, "locally": 7246, "eyebrows": 8407, "##utable": 23056, "plays": 3248, "tuscany": 23322, "sonic": 12728, "##bau": 27773, "compensation": 9430, "yards": 4210, "erroneously": 29411, "breakaway": 26321, "79": 6535, "northampton": 15944, "##sil": 27572, "factory": 4713, "booth": 9065, "staggered": 14648, "1762": 20827, "##nies": 15580, "pops": 16949, "[unused64]": 65, "completion": 6503, "ecole": 12431, "guided": 8546, "sweetness": 23210, "loans": 10940, "##filtration": 28674, "haryana": 23261, "curry": 15478, "newspaper": 3780, "kingston": 9803, "sasha": 14673, "[unused671]": 676, "shamrock": 28782, "tuba": 29242, "\u793a": 1923, "/": 1013, "coli": 27441, "cho": 16480, "bees": 13734, "enriched": 25202, "elevation": 6678, "folded": 6999, "deciduous": 22411, "veteran": 8003, "##yr": 12541, "comte": 19758, "entitled": 4709, "alexei": 21219, "wurttemberg": 16346, "bobbie": 27731, "##vich": 12933, "sucked": 8631, "borrow": 17781, "searing": 25764, "rome": 4199, "canterbury": 9976, "ousted": 28368, "##ticus": 29587, "priority": 9470, "wichita": 18614, "tear": 7697, "shankar": 17429, "hospitalized": 24735, "fifties": 25942, "##ance": 6651, "rushes": 18545, "waters": 5380, "squirrels": 29384, "\u30bf": 1709, "imposing": 16625, "imperial": 4461, "bei": 21388, "mosaic": 16061, "orbital": 13943, "universe": 5304, "hobby": 17792, "earned": 3687, "babylon": 17690, "##mina": 22311, "turrets": 21088, "amazing": 6429, "[unused149]": 154, "pioneers": 13200, "even": 2130, "og": 13958, "congregations": 16850, "walsall": 29054, "quasi": 17982, "##lena": 20844, "##ko": 3683, "dollars": 6363, "##werk": 29548, "bombing": 8647, "sq": 5490, "morton": 11164, "1956": 3838, "cultural": 3451, "another": 2178, "aura": 15240, "arranging": 19018, "hindus": 18221, "sorcerer": 23324, "##\u00b7": 29661, "##sper": 17668, "cr": 13675, "duchy": 11068, "\u1d64": 1509, "fullback": 21803, "silvia": 27827, "select": 7276, "obtained": 4663, "shi": 11895, "mean": 2812, "mahmud": 25886, "520": 19611, "##ilia": 27861, "##stered": 24167, "##\u539f": 30313, "communists": 13009, "bbc": 4035, "hilbert": 27434, "european": 2647, "pie": 11345, "labourers": 24043, "hacked": 28719, "maintain": 5441, "[unused244]": 249, "##kim": 21138, "barnet": 26864, "danced": 10948, "[unused208]": 213, "lowry": 27281, "betrayal": 14583, "##ches": 8376, "##tow": 18790, "detonated": 28110, "##mmon": 24521, "alike": 11455, "bliss": 13670, "##abi": 28518, "carrier": 6839, "lacking": 11158, "airports": 13586, "canadians": 16485, "refusing": 11193, "fastened": 24009, "cricketer": 9490, "compared": 4102, "thomson": 11161, "timmy": 27217, "proceeded": 8979, "dhabi": 23153, "france": 2605, "westbound": 24717, "recycled": 22207, "cinema": 5988, "##\u6c34": 30419, "hospitality": 15961, "##folding": 21508, "guns": 4409, "egg": 8288, "richly": 26502, "ambushed": 22168, "paint": 6773, "fair": 4189, "concepcion": 27331, "paler": 24489, "strengthen": 12919, "lunch": 6265, "genuine": 10218, "inspiring": 18988, "gottfried": 26142, "henan": 27837, "\u062b": 1274, "##\u0637": 29828, "arrows": 12563, "##lten": 29005, "profit": 5618, "alligator": 28833, "##jected": 24455, "##dre": 16200, "##yre": 16363, "variously": 17611, "obscure": 14485, "widened": 8723, "##esthesia": 25344, "learn": 4553, "strapped": 18019, "climates": 24734, "outlet": 13307, "##fell": 23510, "fortunes": 18023, "athletics": 6482, "thin": 4857, "##mler": 18602, "bruise": 24851, "raymond": 7638, "enormous": 8216, "spartak": 28560, "\u116d": 1477, "americana": 25988, "tiger": 6816, "ruthless": 18101, "##litz": 24725, "##\u76f8": 30445, "vineyards": 20597, "gloucestershire": 15905, "improvised": 19641, "[unused985]": 990, "directs": 23303, "##ulin": 18639, "[unused112]": 117, "scrubbed": 27820, "pistol": 8779, "##isk": 20573, "##vera": 26061, "pension": 11550, "glass": 3221, "unmistakable": 24219, "juno": 20788, "measured": 7594, "before": 2077, "electrode": 28688, "barrage": 19359, "consultant": 8930, "##arus": 29133, "pigs": 14695, "##\u1102": 29992, "ripped": 9157, "##eira": 21302, "[unused570]": 575, "dialects": 11976, "##sms": 19230, "attic": 14832, "castile": 15656, "##\u611b": 30379, "conqueror": 25466, "##ines": 10586, "##ality": 23732, "reduce": 5547, "\u00ae": 1079, "[unused917]": 922, "faculty": 4513, "mildred": 25452, "gilles": 21717, "maxi": 21510, "ministerial": 18645, "carey": 11782, "merge": 13590, "##\u1d3a": 30030, "##zog": 28505, "##alia": 22786, "merry": 12831, "ia": 24264, "[unused385]": 390, "give": 2507, "benefactor": 27398, "\u062e": 1277, "slopes": 10314, "pollution": 10796, "institutions": 4896, "[unused562]": 567, "##hue": 20169, "divided": 4055, "auf": 21200, "hernandez": 13688, "funds": 5029, "##itation": 18557, "##phi": 21850, "##connected": 24230, "enrollment": 10316, "scotch": 18937, "##holm": 18884, "captives": 21496, "brightness": 18295, "##86": 20842, "[unused976]": 981, "overlook": 27590, "asian": 4004, "##bold": 27495, "verve": 29230, "smoothing": 27045, "[unused914]": 919, "##\u0dcf": 29944, "rowland": 20539, "invoked": 24959, "complaints": 10821, "adept": 26398, "##dale": 5634, "##coming": 18935, "##ered": 6850, "edmonton": 10522, "field": 2492, "vinci": 23765, "expenditure": 20700, "##dna": 28911, "intercollegiate": 21587, "calendar": 8094, "charlie": 4918, "##\u30e5": 30255, "member": 2266, "foil": 17910, "drives": 9297, "language": 2653, "undergoes": 29129, "lyric": 13677, "##lta": 24458, "reuben": 17294, "##bing": 10472, "##dlow": 27002, "##\u30eb": 30259, "\u0268": 1118, "compares": 22963, "##01": 24096, "##\u2ebc": 30159, "cartel": 21680, "pit": 6770, "paradigm": 20680, "reputed": 22353, "##isha": 24032, "gonzaga": 26840, "simulated": 23599, "disposed": 21866, "[unused431]": 436, "analyses": 16478, "venus": 11691, "clay": 5726, "washington": 2899, "mystery": 6547, "zenith": 28672, "##iter": 21646, "##fighting": 22158, "swimmers": 21669, "clean": 4550, "cited": 6563, "##hr": 8093, "gallagher": 17297, "ewing": 24023, "replicate": 28024, "partnership": 5386, "83": 6640, "condom": 20910, "[unused819]": 824, "establish": 5323, "##face": 12172, "##pina": 26787, "licked": 11181, "[unused415]": 420, "manipulating": 26242, "[unused227]": 232, "\u09c7": 1381, "[unused276]": 281, "repeating": 15192, "gaelic": 11196, "conform": 23758, "zone": 4224, "list": 2862, "##\u05d1": 29789, "volkswagen": 18817, "proclamation": 16413, "[unused223]": 228, "beak": 23525, "famously": 18172, "stain": 21101, "worcester": 12539, "\u0639": 1288, "prick": 24858, "##\u20ac": 30102, "##erine": 24226, "##\u2089": 30085, "##\u27e8": 30155, "wife": 2564, "cruelty": 18186, "roanoke": 25899, "deter": 28283, "blessed": 10190, "scandinavian": 17660, "[unused510]": 515, "defined": 4225, "punches": 17957, "[unused610]": 615, "bombers": 10544, "clockwise": 22839, "taxpayer": 26980, "[unused481]": 486, "nero": 19212, "##physics": 15638, "pills": 15345, "busy": 5697, "sensory": 16792, "panama": 8515, "ton": 10228, "##fr": 19699, "roof": 4412, "springsteen": 26002, "[unused805]": 810, "glorious": 14013, "fiddle": 15888, "\u30a2": 1693, "bn": 24869, "verdict": 14392, "brother": 2567, "##ont": 12162, "marines": 9622, "mattress": 13342, "expansive": 25145, "1967": 3476, "microscope": 24635, "##basket": 25351, "serious": 3809, "##jm": 24703, "wars": 5233, "hermitage": 24708, "[unused890]": 895, "##\u00a3": 29646, "execute": 15389, "##\u043d\u0430": 19865, "own": 2219, "stage": 2754, "monsters": 9219, "135": 11502, "\u2033": 1532, "steep": 9561, "gallery": 3916, "provided": 3024, "nearby": 3518, "asylum": 11386, "songs": 2774, "sent": 2741, "westfield": 26584, "vp": 21210, "curved": 9203, "terrifying": 17082, "247": 23380, "wii": 16568, "evenings": 16241, "##tang": 26067, "alba": 18255, "durham": 9296, "##ide": 5178, "lyman": 27587, "electrified": 18042, "##tooth": 19392, "shouldered": 29383, "heritage": 4348, "sphere": 10336, "##dding": 27027, "\u09b7": 1375, "rocked": 14215, "qc": 25196, "##boards": 15271, "pioneering": 13280, "mantle": 16019, "##oran": 18842, "throwing": 6886, "[unused343]": 348, "ligament": 25641, "clinging": 17892, "aggression": 14974, "slowing": 18068, "exploits": 20397, "1611": 28769, "wheeling": 29142, "platt": 28005, "yawned": 27626, "tumors": 21434, "prostitutes": 20833, "[unused228]": 233, "causeway": 23336, "vocabulary": 16188, "fingerprints": 27556, "browning": 18778, "##fle": 21031, "##\u026a": 29685, "message": 4471, "wa": 11333, "cynthia": 15809, "demetrius": 28367, "\u677e": 1880, "1877": 7557, "egyptian": 6811, "perfectly": 6669, "##schen": 23796, "13th": 6122, "martini": 24480, "tug": 12888, "gift": 5592, "heads": 4641, "culminated": 16943, "moreover": 9308, "disdain": 25134, "2007": 2289, "seduction": 26962, "##tsu": 10422, "zion": 19999, "sofia": 8755, "##ometer": 18721, "netball": 25034, "mohammad": 12050, "population": 2313, "eighteenth": 12965, "bombed": 18897, "##chan": 14856, "wakefield": 16045, "humphrey": 15462, "acronym": 20137, "colonists": 15526, "groaning": 24781, "redwood": 27552, "couple": 3232, "remarked": 10783, "mayfield": 27224, "piece": 3538, "petitioned": 22527, "1952": 3999, "cupping": 25076, "ju": 18414, "adjusted": 10426, "##\u203a": 30068, "fuselage": 13478, "twenty": 3174, "sympathetic": 13026, "\u5c1a": 1830, "definitive": 15764, "online": 3784, "crawley": 28854, "[unused607]": 612, "snarled": 15022, "##kha": 15256, "\u1107": 1460, "furniture": 7390, "airplane": 13297, "##\u2194": 30115, "eaton": 17642, "##fer": 7512, "bells": 10118, "substituted": 17316, "\u4eee": 1761, "[unused56]": 57, "##grin": 24860, "paul": 2703, "lesley": 23920, "alteration": 26014, "octagonal": 22340, "supervision": 10429, "allah": 16455, "defeats": 14222, "1964": 3546, "agenda": 11376, "arboretum": 25197, "##week": 28075, "commodities": 21955, "\u300c": 1641, "flemish": 15427, "longest": 6493, "thinkers": 24762, "##quitable": 28298, "releasing": 8287, "scully": 25686, "ample": 20851, "'": 1005, "1900": 5141, "buddy": 8937, "ellis": 8547, "creativity": 14842, "blankly": 26344, "addresses": 11596, "razor": 15082, "spirits": 8633, "scraped": 20378, "warped": 25618, "viral": 13434, "enabled": 9124, "\u9752": 1975, "damien": 12587, "arch": 7905, "interlude": 25347, "##und": 8630, "jake": 5180, "recovered": 6757, "headlined": 25214, "waller": 23550, "##sing": 7741, "patriotic": 14314, "##alo": 23067, "alexander": 3656, "wrestlers": 14039, "blaming": 24114, "penalty": 6531, "\u266f": 1628, "shelley": 15828, "khalifa": 27925, "carbon": 6351, "neal": 11030, "anthologies": 25675, "nutrition": 14266, "hole": 4920, "duchess": 11017, "roaring": 17197, "evie": 26400, "remade": 26943, "##pressing": 24128, "##ils": 12146, "controllers": 21257, "##llin": 21202, "draining": 19689, "volga": 26459, "brood": 25565, "repay": 24565, "scoring": 4577, "134": 15170, "mort": 22294, "aground": 29406, "wound": 6357, "##uz": 17040, "[unused442]": 447, "benedictine": 21139, "rising": 4803, "flickering": 20046, "ak": 17712, "##65": 26187, "uncovered": 14486, "starved": 26042, "##mates": 15416, "depiction": 15921, "pulpit": 23134, "zhang": 9327, "position": 2597, "demolished": 7002, "##gut": 27920, "machinery": 10394, "francoise": 28979, "thursday": 9432, "clicks": 29225, "##tum": 11667, "##aia": 27131, "##eli": 20806, "showtime": 23811, "ya": 8038, "kala": 26209, "##gel": 12439, "developmental": 13908, "orthodoxy": 26582, "callie": 20072, "defeating": 6324, "olympic": 4386, "##ated": 4383, "##sed": 6924, "elise": 14251, "accolades": 27447, "##ttle": 26328, "miracle": 9727, "sold": 2853, "yoko": 28758, "conditioned": 22442, "strap": 16195, "sued": 12923, "lehigh": 23241, "cbe": 15852, "##hawk": 17998, "folder": 19622, "1746": 24507, "##iology": 20569, "silent": 4333, "mike": 3505, "restoration": 6418, "##lite": 22779, "\u516c": 1772, "economic": 3171, "##rl": 12190, "knocking": 10591, "##\u30ed": 30261, "myself": 2870, "choosing": 10549, "kilometre": 13214, "273": 25371, "basha": 26074, "myles": 27056, "biographer": 17121, "needy": 23927, "unleashed": 22416, "calculation": 17208, "##\u6708": 30398, "seized": 8243, "divisional": 14167, "##vid": 17258, "panels": 9320, "heath": 9895, "fabulous": 18783, "emile": 17127, "coloration": 28757, "beautifully": 17950, "indices": 29299, "conical": 24750, "##66": 28756, "definition": 6210, "\u03c5": 1175, "##ous": 3560, "pd": 22851, "shrugged": 6345, "[unused770]": 775, "[unused637]": 642, "\u6c5f": 1897, "sire": 15785, "mirage": 21483, "hotels": 9275, "balance": 5703, "breuning": 18177, "governors": 11141, "lucy": 7004, "##door": 23835, "##lander": 22691, "tia": 27339, "curtiss": 26431, "differ": 11234, "reaction": 4668, "height": 4578, "##culture": 14561, "secession": 22965, "achievements": 10106, "##itt": 12474, "fines": 21892, "eugen": 29273, "fathers": 11397, "tattoos": 18395, "##ype": 18863, "lei": 26947, "evident": 10358, "kyushu": 25885, "##wind": 11101, "##kaya": 20718, "experiment": 7551, "abusive": 20676, "supremacy": 22006, "##stream": 21422, "isn": 3475, "long": 2146, "tired": 5458, "##ma": 2863, "ranked": 4396, "##logist": 10727, "##boats": 19468, "##ography": 9888, "##oles": 29111, "##cuting": 29163, "stacks": 20829, "##lars": 28695, "turnout": 15512, "##pper": 18620, "practitioner": 18742, "##u": 2226, "loss": 3279, "##kk": 19658, "stroking": 14943, "##yed": 20821, "yet": 2664, "ninety": 13568, "converse": 23705, "treasurer": 10211, "##edo": 26010, "ribs": 10335, "clapping": 27104, "labeled": 12599, "agrarian": 23226, "leningrad": 15930, "sourced": 23184, "baby": 3336, "curly": 17546, "wed": 21981, "curated": 17940, "##gation": 12540, "starring": 4626, "deserved": 10849, "treasures": 17605, "wembley": 16538, "season": 2161, "##cki": 18009, "debates": 14379, "mt": 11047, "thinner": 23082, "manufacture": 9922, "zhao": 15634, "arsenal": 9433, "##tious": 20771, "british": 2329, "spouse": 18591, "##vati": 20203, "##zawa": 19708, "predators": 12630, "##\u0430": 10260, "oilers": 19778, "##\u9752": 30501, "dancer": 8033, "[unused242]": 247, "staunch": 26355, "programmed": 16984, "[unused326]": 331, "skeleton": 13526, "nintendo": 10022, "##oria": 11069, "sentiments": 23541, "chapters": 9159, "palo": 24326, "linking": 11383, "wolves": 8588, "##iss": 14643, "cumberland": 12310, "10th": 6049, "blonde": 9081, "ballistic": 19630, "##day": 10259, "guangzhou": 18693, "tempo": 13657, "tyler": 7482, "##cup": 15569, "bravo": 17562, "partly": 6576, "douglass": 27485, "fuels": 20145, "humiliating": 28284, "earn": 7796, "cleveland": 6044, "vermont": 8839, "##bot": 18384, "1796": 13885, "assisted": 7197, "signaling": 14828, "mitchell": 6395, "bullets": 10432, "colton": 21000, "poisonous": 22641, "employ": 12666, "sometime": 8811, "parallels": 18588, "##\u8fb6": 30482, "next": 2279, "legally": 10142, "who": 2040, "kangaroo": 21652, "lorraine": 13895, "slovenia": 10307, "ins": 16021, "##icated": 17872, "##\u5fa1": 30373, "milton": 9660, "intra": 26721, "julius": 10396, "bribery": 27748, "90": 3938, "baptized": 19775, "preliminary": 8824, "crook": 19302, "logging": 15899, "oman": 16640, "bulletin": 13146, "##iously": 19426, "\u03b8": 1162, "miriam": 16925, "merger": 7660, "##gned": 19225, "vogel": 27063, "salon": 11090, "periods": 6993, "fares": 27092, "1970": 3359, "osman": 28609, "1769": 20663, "##vos": 19862, "disregard": 27770, "favorable": 11119, "coastal": 5780, "##aurus": 17342, "elevators": 19406, "duc": 26363, "austen": 24177, "##mas": 9335, "\u9ad8": 1981, "same": 2168, "outfielder": 21033, "discrimination": 9147, "analysis": 4106, "md": 9108, "implications": 13494, "##wyn": 11761, "theirs": 17156, "converts": 19884, "##crat": 23185, "fifty": 5595, "deco": 21933, "[unused737]": 742, "##trics": 29392, "##zo": 6844, "##court": 13421, "und": 6151, "cory": 18342, "##\u062f": 15394, "nordic": 13649, "milos": 26038, "arrive": 7180, "tko": 26537, "outlets": 11730, "domino": 23968, "mri": 27011, "encoding": 17181, "horrified": 14603, "##\u65b9": 30389, "tea": 5572, "terminate": 20320, "##tor": 4263, "##leton": 19263, "adjacent": 5516, "##minated": 26972, "pairing": 22778, "lasted": 6354, "below": 2917, "nba": 6452, "orphaned": 27093, "floated": 13715, "trenton": 17148, "realm": 8391, "harassment": 16011, "bearer": 20905, "villiers": 25333, "robbins": 18091, "centrally": 25497, "manly": 19385, "[unused705]": 710, "##\u5834": 30332, "anticipation": 11162, "sloop": 24786, "faintly": 18587, "flashing": 12659, "leapt": 13920, "\u570b": 1800, "##athi": 25457, "recalls": 17722, "pakistani": 9889, "poking": 21603, "spells": 11750, "\u09b9": 1377, "leighton": 26873, "hopefully": 11504, "classmate": 23175, "squid": 26852, "romeo": 12390, "spartans": 24293, "##san": 8791, "anatolia": 23747, "##pu": 14289, "blushing": 25771, "##\u90e8": 30486, "[unused53]": 54, "amplified": 26986, "extensions": 14305, "\u00bb": 1090, "roe": 20944, "##quisite": 24871, "##\u6797": 30407, "extensive": 4866, "232": 20666, "without": 2302, "rural": 3541, "frightened": 10363, "locals": 10575, "sol": 14017, "als": 25520, "ava": 10927, "font": 15489, "routine": 9410, "##tructing": 26310, "enforce": 16306, "blackburn": 13934, "[unused733]": 738, "vision": 4432, "chevalier": 22019, "[unused490]": 495, "nrhp": 22424, "stockton": 19161, "feast": 9831, "postwar": 20013, "bourbon": 15477, "##dable": 20782, "fiesta": 24050, "moment": 2617, "acoustic": 6490, "##hale": 15238, "village": 2352, "taxes": 7773, "happen": 4148, "##sos": 17063, "citadel": 15364, "ordinance": 16692, "jaya": 24120, "layered": 21323, "1814": 10977, "cop": 8872, "withdrawing": 21779, "careers": 10922, "lengths": 10742, "pietro": 15541, "lena": 14229, "prompted": 9469, "nell": 20970, "##dez": 24601, "counts": 9294, "invitations": 29492, "roth": 12211, "ucla": 12389, "milky": 21582, "##\u6bd4": 30416, "##\u092c": 29865, "ep": 4958, "conventional": 7511, "\u00a32": 21853, "loaf": 27048, "thoroughly": 12246, "detrimental": 29172, "angered": 18748, "##bread": 27035, "##forth": 15628, "##fur": 27942, "organist": 16397, "##kin": 4939, "mounted": 5614, "##bler": 16213, "statesman": 17689, "tapped": 10410, "##ne": 2638, "convert": 10463, "polka": 29499, "galilee": 28928, "possession": 6664, "squash": 18794, "shredded": 29022, "bazaar": 22774, "house": 2160, "toilets": 21674, "respectable": 19416, "borneo": 15688, "buff": 23176, "myrtle": 21381, "usable": 24013, "alterations": 16705, "##pus": 12207, "\u58eb": 1807, "ref": 25416, "dickinson": 17590, "lori": 18669, "drafts": 28967, "beijing": 7211, "authoritative": 23949, "commuted": 26704, "priced": 21125, "arte": 16185, "gems": 20296, "mortimer": 17416, "##nation": 9323, "action": 2895, "korea": 4420, "tracked": 12808, "##urse": 28393, "lower": 2896, "trenches": 19874, "##iani": 25443, "midi": 22265, "wire": 7318, "\u1111": 1468, "ne": 11265, "337": 28489, "jj": 29017, "mandal": 24373, "##don": 5280, "sturdy": 23073, "pools": 12679, "dressing": 11225, "##tu": 8525, "1801": 12410, "else": 2842, "disappearance": 13406, "exist": 4839, "##\u671d": 30400, "blake": 6511, "[unused188]": 193, "crystal": 6121, "dissertation": 14481, "##ropriation": 26121, "overshadowed": 28604, "##ratic": 23671, "ursula": 20449, "lang": 11374, "six": 2416, "enemy": 4099, "evil": 4763, "page": 3931, "oz": 11472, "mathematical": 8045, "leasing": 26707, "complement": 13711, "filled": 3561, "vampires": 6144, "corresponding": 7978, "plump": 26731, "\u2218": 1599, "jeremy": 7441, "\u21d2": 1591, "effortlessly": 29483, "##\u10d1": 29975, "[unused883]": 888, "##lynn": 27610, "subcommittee": 18052, "##vate": 16952, "established": 2511, "prospect": 9824, "##tique": 28437, "meat": 6240, "##\u0647": 14157, "oakley": 28876, "participating": 8019, "td": 14595, "existent": 25953, "evaluation": 9312, "quinlan": 28451, "wealth": 7177, "theology": 8006, "vincent": 6320, "abnormalities": 28828, "##hosis": 25229, "cpi": 28780, "branching": 23346, "##usion": 14499, "janata": 20308, "##50": 12376, "residual": 21961, "if": 2065, "temporal": 15850, "##ock": 7432, "##kei": 29501, "kannada": 13873, "##dition": 20562, "view": 3193, "mattered": 13836, "stitch": 26035, "##fc": 11329, "prosecuted": 21651, "comprehend": 22346, "circumstances": 6214, "\u00a31": 14534, "guessing": 16986, "quarters": 7728, "\u00d7": 1095, "##pher": 27921, "[unused70]": 71, "illusion": 12492, "gall": 26033, "127": 13029, "395": 24673, "cap": 6178, "erik": 10240, "\u1d57": 1505, "ranger": 11505, "newtown": 26382, "##\u02bbi": 26444, "investigator": 14064, "##dermott": 29370, "instead": 2612, "bo": 8945, "puzzles": 19672, "##lth": 24658, "hovering": 16349, "forgiven": 24280, "[unused618]": 623, "intention": 6808, "william": 2520, "giacomo": 22873, "starr": 14330, "yellow": 3756, "werner": 14121, "##rgeon": 28242, "civilians": 9272, "piccolo": 29368, "judicial": 8268, "##non": 8540, "pursed": 21954, "riots": 12925, "darts": 17493, "##47": 22610, "merits": 22617, "##\u0baa": 29924, "linux": 11603, "defected": 26330, "stokes": 18716, "##{": 29640, "##nu": 11231, "apes": 27754, "##aa": 11057, "albert": 4789, "[unused796]": 801, "fitzroy": 21870, "generate": 9699, "i": 1045, "^": 1034, "assets": 7045, "curtain": 11002, "finger": 4344, "galicia": 19017, "##yse": 23274, "interpreting": 25455, "coupling": 19780, "responsibility": 5368, "##hetic": 20086, "electric": 3751, "fishermen": 16532, "##ckey": 29183, "coast": 3023, "##\u4eee": 30287, "station": 2276, "revelations": 22191, "bob": 3960, "shadowed": 25843, "siding": 17326, "symphony": 6189, "financing": 12135, "##uously": 28078, "##oke": 11045, "longitudinal": 20134, "hardware": 8051, "reviewer": 12027, "paddle": 20890, "[unused581]": 586, "##ky": 4801, "carts": 25568, "##vies": 25929, "istanbul": 9960, "improvements": 8377, "tempest": 22553, "gabon": 23129, "ritual": 8887, "182": 17691, "##uc": 14194, "shouldn": 5807, "arbor": 19679, "coins": 7824, "296": 27200, "fossils": 11954, "donovan": 12729, "earl": 4656, "lineup": 10515, "address": 4769, "xi": 8418, "bhp": 22245, "amalgamated": 17143, "inline": 23881, "##layer": 24314, "89": 6486, "##iidae": 15648, "##car": 10010, "##hei": 26036, "barns": 25684, "anywhere": 5973, "slick": 13554, "trick": 7577, "flourished": 17893, "tide": 10401, "sedimentary": 25503, "[unused125]": 130, "huff": 21301, "\u026c": 1121, "1654": 27445, "lara": 13679, "squinted": 17425, "##dates": 27122, "chained": 22075, "infectious": 16514, "store": 3573, "##pack": 23947, "[unused541]": 546, "pleistocene": 25080, "tortricidae": 27683, "point": 2391, "malaga": 27382, "nueva": 24536, "bump": 16906, "##kan": 9126, "yelling": 13175, "##matic": 12644, "laundering": 28289, "marty": 12578, "guy": 3124, "verdi": 20580, "prompting": 15870, "walker": 5232, "aviv": 12724, "1920s": 6641, "rest": 2717, "[unused752]": 757, "azure": 24296, "guadalajara": 22887, "##oc": 10085, "goa": 15244, "##market": 20285, "guerrero": 16938, "totally": 6135, "##ici": 28775, "distinction": 7835, "nominate": 23388, "mouths": 15076, "\u7a7a": 1930, "socialist": 6102, "argus": 25294, "combat": 4337, "##aga": 16098, "##fast": 24333, "laughing": 5870, "jerked": 8245, "tucking": 25056, "educated": 5161, "onstage": 23542, "overseeing": 19642, "challenged": 8315, "dodgers": 13391, "pontifical": 22362, "assumed": 5071, "combines": 13585, "spinning": 9419, "sling": 27076, "transformations": 21865, "##orro": 29459, "rates": 6165, "\u057d": 1234,
[...]
